<pad>	0
<unk>	0
<s>	0
</s>	0
▁t	-0
▁a	-1
in	-2
he	-3
re	-4
on	-5
▁the	-6
er	-7
at	-8
en	-9
▁c	-10
▁s	-11
▁o	-12
an	-13
it	-14
es	-15
is	-16
▁w	-17
al	-18
▁p	-19
or	-20
▁b	-21
▁in	-22
▁f	-23
ed	-24
nd	-25
ing	-26
▁to	-27
ar	-28
ic	-29
▁of	-30
▁m	-31
ion	-32
ro	-33
▁d	-34
ou	-35
▁and	-36
▁th	-37
ent	-38
le	-39
▁e	-40
st	-41
▁h	-42
▁re	-43
▁n	-44
om	-45
ly	-46
il	-47
ve	-48
as	-49
▁be	-50
▁l	-51
▁g	-52
ct	-53
ut	-54
▁that	-55
▁is	-56
ation	-57
ol	-58
im	-59
▁T	-60
▁I	-61
se	-62
ce	-63
ot	-64
ver	-65
ra	-66
▁A	-67
▁de	-68
ur	-69
▁for	-70
ld	-71
id	-72
ment	-73
ig	-74
ow	-75
▁it	-76
et	-77
▁on	-78
▁st	-79
ies	-80
ch	-81
ad	-82
ate	-83
nt	-84
▁u	-85
▁con	-86
▁pro	-87
ir	-88
▁S	-89
ill	-90
ul	-91
▁C	-92
▁B	-93
▁as	-94
▁–	-95
ter	-96
▁The	-97
▁E	-98
ore	-99
▁wh	-100
▁r	-101
pe	-102
ould	-103
ith	-104
▁al	-105
ity	-106
▁su	-107
ers	-108
est	-109
her	-110
ge	-111
▁ex	-112
▁with	-113
ay	-114
▁are	-115
ess	-116
us	-117
▁ne	-118
▁an	-119
lo	-120
ive	-121
th	-122
▁we	-123
am	-124
ist	-125
▁not	-126
▁U	-127
ial	-128
ke	-129
▁ha	-130
res	-131
ab	-132
iv	-133
ain	-134
if	-135
con	-136
ount	-137
▁com	-138
ort	-139
▁M	-140
▁by	-141
em	-142
▁have	-143
▁has	-144
▁sh	-145
▁P	-146
pp	-147
oc	-148
▁will	-149
qu	-150
▁se	-151
▁le	-152
ac	-153
and	-154
▁W	-155
conom	-156
igh	-157
▁pol	-158
▁count	-159
▁wor	-160
▁G	-161
ost	-162
over	-163
▁F	-164
▁v	-165
ust	-166
▁en	-167
▁im	-168
ia	-169
rom	-170
uro	-171
▁countr	-172
ant	-173
▁at	-174
▁econom	-175
▁or	-176
os	-177
um	-178
ical	-179
od	-180
op	-181
ap	-182
iz	-183
ions	-184
▁its	-185
▁he	-186
▁from	-187
art	-188
▁ch	-189
▁their	-190
ib	-191
▁“	-192
red	-193
▁Ch	-194
▁more	-195
ast	-196
ans	-197
▁y	-198
ome	-199
un	-200
el	-201
▁N	-202
ong	-203
▁2	-204
▁inc	-205
ak	-206
▁imp	-207
▁un	-208
▁R	-209
▁would	-210
mer	-211
▁int	-212
▁Euro	-213
ary	-214
all	-215
gh	-216
end	-217
ight	-218
▁can	-219
ther	-220
▁Europe	-221
▁res	-222
overn	-223
ure	-224
ff	-225
▁In	-226
▁But	-227
▁this	-228
▁they	-229
▁ab	-230
ich	-231
ous	-232
row	-233
▁was	-234
ru	-235
▁ag	-236
ear	-237
pt	-238
▁US	-239
▁Chin	-240
ect	-241
ance	-242
ud	-243
▁govern	-244
ations	-245
▁1	-246
▁cont	-247
▁ad	-248
ational	-249
anc	-250
▁O	-251
▁20	-252
▁all	-253
ates	-254
▁than	-255
cc	-256
▁countries	-257
ard	-258
du	-259
ip	-260
▁H	-261
▁pr	-262
▁whe	-263
rou	-264
▁which	-265
▁government	-266
▁Th	-267
out	-268
able	-269
ign	-270
ike	-271
ie	-272
ult	-273
▁D	-274
▁fin	-275
ere	-276
reat	-277
▁rec	-278
▁world	-279
any	-280
▁j	-281
▁part	-282
▁do	-283
ven	-284
▁(	-285
▁comp	-286
ide	-287
ark	-288
▁but	-289
ress	-290
▁year	-291
ree	-292
lic	-293
▁fa	-294
▁dis	-295
▁China	-296
one	-297
ime	-298
orm	-299
ag	-300
tern	-301
▁grow	-302
▁L	-303
▁J	-304
ks	-305
▁exp	-306
▁polit	-307
▁tr	-308
ian	-309
▁reg	-310
og	-311
bal	-312
▁polic	-313
▁economic	-314
▁pe	-315
ence	-316
our	-317
ated	-318
ors	-319
▁dec	-320
▁new	-321
▁out	-322
▁been	-323
▁pl	-324
▁bec	-325
are	-326
▁inv	-327
ub	-328
▁so	-329
▁should	-330
ep	-331
ose	-332
erm	-333
lobal	-334
▁other	-335
▁over	-336
▁dem	-337
meric	-338
ction	-339
ll	-340
ile	-341
cy	-342
so	-343
ine	-344
age	-345
ren	-346
▁K	-347
▁like	-348
ue	-349
ally	-350
▁Americ	-351
▁only	-352
ake	-353
▁As	-354
▁cr	-355
ition	-356
▁comm	-357
▁me	-358
▁Un	-359
▁also	-360
form	-361
▁lead	-362
ower	-363
ens	-364
▁und	-365
▁need	-366
▁most	-367
ish	-368
▁global	-369
▁tra	-370
▁could	-371
▁pre	-372
ire	-373
▁one	-374
▁who	-375
▁growth	-376
arket	-377
ident	-378
▁ind	-379
lop	-380
au	-381
velop	-382
▁such	-383
▁ris	-384
fic	-385
▁political	-386
▁financ	-387
ack	-388
▁Ind	-389
ility	-390
ities	-391
ern	-392
ople	-393
reas	-394
▁his	-395
▁cons	-396
ious	-397
▁eff	-398
uch	-399
old	-400
▁It	-401
▁qu	-402
▁str	-403
oll	-404
▁invest	-405
▁country	-406
▁k	-407
▁sp	-408
ord	-409
ative	-410
▁no	-411
▁rel	-412
ments	-413
ism	-414
▁about	-415
▁ar	-416
▁cl	-417
▁acc	-418
▁were	-419
ood	-420
▁now	-421
▁people	-422
ber	-423
▁per	-424
▁market	-425
ange	-426
▁rem	-427
ank	-428
ited	-429
ough	-430
▁bet	-431
▁if	-432
▁em	-433
▁develop	-434
ame	-435
▁under	-436
▁policy	-437
▁financial	-438
▁these	-439
ble	-440
arly	-441
per	-442
▁19	-443
ice	-444
▁some	-445
▁up	-446
lect	-447
ublic	-448
▁supp	-449
▁them	-450
▁long	-451
uc	-452
▁when	-453
▁increas	-454
und	-455
▁St	-456
ach	-457
amp	-458
▁even	-459
ang	-460
pect	-461
uss	-462
▁there	-463
ew	-464
bt	-465
gy	-466
ass	-467
ause	-468
▁cur	-469
int	-470
av	-471
ution	-472
de	-473
own	-474
▁Is	-475
▁app	-476
▁many	-477
ace	-478
▁economy	-479
▁European	-480
▁sy	-481
very	-482
vent	-483
▁time	-484
▁inf	-485
▁years	-486
cess	-487
▁soc	-488
erest	-489
▁must	-490
ons	-491
ating	-492
▁power	-493
▁cap	-494
rough	-495
▁intern	-496
ory	-497
▁fir	-498
eral	-499
▁This	-500
▁what	-501
▁rep	-502
▁much	-503
ax	-504
ric	-505
▁work	-506
ful	-507
▁Af	-508
erv	-509
▁ro	-510
ise	-511
▁ra	-512
lear	-513
ces	-514
▁am	-515
▁mon	-516
stem	-517
▁into	-518
resident	-519
lud	-520
ond	-521
▁tw	-522
ms	-523
act	-524
ices	-525
▁200	-526
▁how	-527
ced	-528
illion	-529
▁pos	-530
▁interest	-531
▁sc	-532
▁201	-533
ual	-534
▁lar	-535
▁may	-536
iet	-537
ible	-538
▁any	-539
▁system	-540
.”	-541
iss	-542
▁att	-543
▁international	-544
hed	-545
get	-546
ov	-547
▁And	-548
▁import	-549
ind	-550
▁war	-551
▁gen	-552
▁just	-553
▁us	-554
▁again	-555
ied	-556
▁po	-557
▁te	-558
we	-559
▁proble	-560
cur	-561
ert	-562
▁co	-563
▁had	-564
▁Russ	-565
ite	-566
alth	-567
ings	-568
▁cris	-569
▁produ	-570
▁conf	-571
bs	-572
▁well	-573
▁high	-574
ital	-575
stit	-576
▁because	-577
▁dif	-578
▁cent	-579
▁public	-580
▁recent	-581
▁America	-582
ese	-583
▁trans	-584
▁remain	-585
ok	-586
hip	-587
▁right	-588
▁Y	-589
▁EU	-590
▁far	-591
▁leaders	-592
▁ow	-593
ruct	-594
▁ref	-595
rit	-596
ific	-597
▁contin	-598
iven	-599
olog	-600
vers	-601
ade	-602
ase	-603
loy	-604
▁act	-605
▁opp	-606
▁tax	-607
ove	-608
its	-609
▁For	-610
▁prov	-611
▁those	-612
ize	-613
eed	-614
▁end	-615
▁debt	-616
oth	-617
ploy	-618
ics	-619
ran	-620
▁Germ	-621
▁fore	-622
imate	-623
ral	-624
lf	-625
ound	-626
▁ent	-627
▁state	-628
00	-629
ict	-630
ives	-631
aj	-632
ays	-633
urn	-634
ues	-635
▁ac	-636
apan	-637
▁two	-638
pr	-639
ild	-640
ward	-641
▁United	-642
lp	-643
low	-644
▁man	-645
▁conc	-646
ized	-647
▁On	-648
ilit	-649
▁our	-650
▁Japan	-651
▁crisis	-652
aw	-653
▁real	-654
▁first	-655
ists	-656
led	-657
ures	-658
▁des	-659
hen	-660
▁mem	-661
▁includ	-662
ef	-663
▁Wh	-664
▁sur	-665
▁while	-666
read	-667
▁add	-668
▁help	-669
▁support	-670
▁kn	-671
ject	-672
allen	-673
round	-674
▁less	-675
▁result	-676
ajor	-677
curity	-678
rib	-679
▁If	-680
ween	-681
ration	-682
ization	-683
▁partic	-684
▁between	-685
▁requ	-686
ient	-687
ince	-688
opul	-689
▁fact	-690
▁redu	-691
ry	-692
pec	-693
rael	-694
ially	-695
▁def	-696
▁effect	-697
oun	-698
ural	-699
▁euro	-700
▁make	-701
▁against	-702
itt	-703
▁ext	-704
▁democ	-705
▁off	-706
▁sim	-707
▁rates	-708
▁reform	-709
▁mod	-710
▁both	-711
▁major	-712
chn	-713
les	-714
atic	-715
▁last	-716
▁cost	-717
▁sign	-718
utions	-719
gan	-720
▁af	-721
rent	-722
▁prog	-723
▁Israel	-724
▁change	-725
▁demand	-726
▁national	-727
▁appro	-728
ail	-729
vel	-730
▁Se	-731
▁resp	-732
▁important	-733
▁ass	-734
▁fund	-735
▁examp	-736
▁offic	-737
▁through	-738
▁bo	-739
▁lo	-740
ption	-741
▁seem	-742
▁region	-743
▁challen	-744
▁dom	-745
▁own	-746
▁after	-747
▁large	-748
▁governments	-749
▁hum	-750
▁too	-751
ortun	-752
uring	-753
▁popul	-754
ense	-755
ians	-756
▁cred	-757
▁leg	-758
▁way	-759
▁does	-760
▁fail	-761
▁investment	-762
min	-763
▁go	-764
▁dep	-765
▁milit	-766
▁where	-767
▁ben	-768
▁Iran	-769
▁risk	-770
▁inter	-771
▁trade	-772
key	-773
anks	-774
▁That	-775
uclear	-776
▁great	-777
als	-778
not	-779
▁prot	-780
▁techn	-781
day	-782
▁val	-783
ingly	-784
▁infl	-785
▁social	-786
▁example	-787
▁sa	-788
▁More	-789
▁Russia	-790
▁markets	-791
▁aut	-792
▁good	-793
▁Chinese	-794
▁foreign	-795
ex	-796
ft	-797
ump	-798
aking	-799
▁bank	-800
▁likely	-801
fere	-802
▁rate	-803
▁$	-804
▁emer	-805
▁capital	-806
eg	-807
cal	-808
ants	-809
ging	-810
ract	-811
ically	-812
▁est	-813
ri	-814
▁jo	-815
▁set	-816
ath	-817
ily	-818
less	-819
▁adv	-820
▁use	-821
iness	-822
▁disc	-823
▁still	-824
▁current	-825
ram	-826
ccess	-827
ability	-828
▁Indeed	-829
▁become	-830
▁commun	-831
▁ins	-832
ision	-833
▁call	-834
▁priv	-835
▁agree	-836
▁today	-837
ably	-838
▁did	-839
▁every	-840
ges	-841
▁el	-842
▁iss	-843
ather	-844
eration	-845
▁military	-846
▁fut	-847
▁neg	-848
ually	-849
ink	-850
ron	-851
▁main	-852
ending	-853
▁strate	-854
▁including	-855
▁Tr	-856
▁sol	-857
orts	-858
▁cor	-859
▁ter	-860
▁cour	-861
▁same	-862
▁future	-863
▁strong	-864
ty	-865
abl	-866
idd	-867
▁take	-868
ior	-869
ater	-870
gest	-871
inis	-872
▁Int	-873
▁Brit	-874
ential	-875
▁might	-876
▁success	-877
▁policies	-878
▁development	-879
▁V	-880
ieve	-881
ness	-882
racy	-883
etary	-884
▁back	-885
▁Afric	-886
▁nuclear	-887
hing	-888
▁sub	-889
▁know	-890
▁rest	-891
▁serv	-892
▁cannot	-893
▁instit	-894
▁prom	-895
▁human	-896
ployment	-897
,”	-898
ning	-899
▁East	-900
▁banks	-901
▁health	-902
der	-903
ergy	-904
▁bel	-905
▁Germany	-906
▁problem	-907
▁American	-908
▁security	-909
▁Fr	-910
ared	-911
ined	-912
▁arg	-913
▁pur	-914
▁particul	-915
▁President	-916
▁bu	-917
▁see	-918
▁elect	-919
ts	-920
rab	-921
outh	-922
iddle	-923
ollow	-924
▁hist	-925
▁being	-926
usiness	-927
).	-928
▁3	-929
ved	-930
▁op	-931
▁bas	-932
▁private	-933
iew	-934
▁At	-935
▁So	-936
ever	-937
ivid	-938
ting	-939
▁India	-940
▁level	-941
▁since	-942
▁billion	-943
ands	-944
arch	-945
▁equ	-946
▁States	-947
omm	-948
▁ob	-949
ready	-950
▁benef	-951
▁compet	-952
▁prices	-953
ged	-954
ider	-955
▁low	-956
▁ret	-957
istan	-958
▁dist	-959
▁economies	-960
▁technolog	-961
ctor	-962
ouse	-963
iscal	-964
other	-965
▁regul	-966
inister	-967
ck	-968
ell	-969
▁es	-970
fore	-971
hold	-972
zone	-973
▁reas	-974
▁expect	-975
DP	-976
ency	-977
▁imm	-978
▁made	-979
ah	-980
inc	-981
▁Wor	-982
ivers	-983
▁decl	-984
li	-985
lus	-986
▁ap	-987
▁threat	-988
ger	-989
bers	-990
osed	-991
▁pers	-992
resent	-993
▁There	-994
▁quest	-995
▁already	-996
▁process	-997
▁president	-998
ush	-999
cept	-1000
here	-1001
rast	-1002
ertain	-1003
▁better	-1004
▁curren	-1005
▁business	-1006
yr	-1007
oss	-1008
ret	-1009
▁ser	-1010
ality	-1011
▁down	-1012
▁follow	-1013
▁states	-1014
ick	-1015
ades	-1016
ving	-1017
ately	-1018
▁central	-1019
▁differe	-1020
▁Moreover	-1021
▁official	-1022
ury	-1023
▁cre	-1024
▁eas	-1025
ening	-1026
▁Asia	-1027
▁Bank	-1028
▁poss	-1029
hor	-1030
uge	-1031
term	-1032
▁ach	-1033
▁prop	-1034
▁weak	-1035
▁Trump	-1036
▁consum	-1037
ead	-1038
▁We	-1039
▁br	-1040
▁ed	-1041
imes	-1042
▁loc	-1043
▁rev	-1044
▁vot	-1045
▁energy	-1046
▁fiscal	-1047
▁address	-1048
),	-1049
ss	-1050
▁sm	-1051
▁par	-1052
▁Arab	-1053
▁Union	-1054
▁contro	-1055
▁without	-1056
ogn	-1057
por	-1058
ror	-1059
▁Ob	-1060
most	-1061
self	-1062
▁ann	-1063
▁hig	-1064
▁ide	-1065
ished	-1066
▁credit	-1067
▁establ	-1068
xt	-1069
rem	-1070
ute	-1071
iron	-1072
road	-1073
▁GDP	-1074
▁Tur	-1075
▁clo	-1076
▁point	-1077
▁Intern	-1078
▁climate	-1079
ten	-1080
abor	-1081
ered	-1082
▁With	-1083
▁then	-1084
▁very	-1085
▁gener	-1086
▁impro	-1087
▁approach	-1088
ama	-1089
ars	-1090
ued	-1091
▁av	-1092
cing	-1093
▁lif	-1094
▁oil	-1095
▁Gree	-1096
▁They	-1097
▁form	-1098
▁term	-1099
▁short	-1100
ibility	-1101
▁monetary	-1102
oti	-1103
▁To	-1104
ters	-1105
▁fac	-1106
▁pot	-1107
▁hard	-1108
▁toward	-1109
▁another	-1110
▁whether	-1111
omen	-1112
oney	-1113
▁Syr	-1114
▁med	-1115
itions	-1116
▁share	-1117
▁domest	-1118
▁societ	-1119
aly	-1120
ened	-1121
▁mat	-1122
▁among	-1123
▁month	-1124
▁course	-1125
▁indust	-1126
▁product	-1127
▁law	-1128
▁lim	-1129
▁appe	-1130
mental	-1131
▁problems	-1132
itiz	-1133
roup	-1134
▁aff	-1135
▁move	-1136
▁past	-1137
▁World	-1138
▁income	-1139
▁account	-1140
▁concern	-1141
▁protect	-1142
▁remains	-1143
ob	-1144
ering	-1145
ratic	-1146
ficult	-1147
▁France	-1148
▁increase	-1149
▁opportun	-1150
▁democracy	-1151
▁difficult	-1152
▁Al	-1153
ross	-1154
ying	-1155
▁num	-1156
ively	-1157
▁simp	-1158
▁turn	-1159
▁Obama	-1160
▁allow	-1161
▁three	-1162
▁eurozone	-1163
ines	-1164
▁educ	-1165
▁creat	-1166
▁least	-1167
▁money	-1168
▁peace	-1169
▁negoti	-1170
▁institutions	-1171
ph	-1172
up	-1173
aps	-1174
ages	-1175
akes	-1176
▁199	-1177
▁car	-1178
▁cond	-1179
▁trad	-1180
▁order	-1181
ructure	-1182
▁around	-1183
▁before	-1184
▁higher	-1185
▁domestic	-1186
▁4	-1187
▁De	-1188
▁ca	-1189
▁ele	-1190
▁few	-1191
▁ine	-1192
ances	-1193
lam	-1194
▁ev	-1195
▁beh	-1196
▁pay	-1197
viron	-1198
▁Kore	-1199
▁come	-1200
▁fall	-1201
estern	-1202
ission	-1203
▁citiz	-1204
▁currency	-1205
raq	-1206
▁He	-1207
▁Iraq	-1208
▁dire	-1209
▁hold	-1210
▁next	-1211
▁role	-1212
▁view	-1213
▁exper	-1214
▁treat	-1215
▁author	-1216
▁needed	-1217
▁rather	-1218
5%	-1219
ves	-1220
ocus	-1221
orth	-1222
▁ful	-1223
▁her	-1224
▁put	-1225
vious	-1226
▁clear	-1227
▁recogn	-1228
▁require	-1229
▁signific	-1230
▁inflation	-1231
acy	-1232
cond	-1233
▁col	-1234
▁rul	-1235
▁disp	-1236
▁happ	-1237
▁mass	-1238
▁sust	-1239
pecially	-1240
▁question	-1241
0%	-1242
000	-1243
omp	-1244
rench	-1245
▁inst	-1246
▁South	-1247
▁costs	-1248
▁group	-1249
▁members	-1250
▁sustain	-1251
ner	-1252
,000	-1253
▁civ	-1254
▁ens	-1255
▁get	-1256
ience	-1257
ittle	-1258
stand	-1259
▁meas	-1260
▁play	-1261
▁prof	-1262
▁focus	-1263
▁means	-1264
▁reason	-1265
▁terror	-1266
▁particularly	-1267
ale	-1268
uel	-1269
reed	-1270
▁nat	-1271
▁plan	-1272
lement	-1273
▁often	-1274
▁organ	-1275
olution	-1276
▁enough	-1277
▁environ	-1278
▁million	-1279
▁relations	-1280
▁especially	-1281
▁Pr	-1282
▁Re	-1283
▁hal	-1284
▁pros	-1285
▁suff	-1286
▁needs	-1287
▁start	-1288
ividual	-1289
▁little	-1290
▁longer	-1291
▁conflic	-1292
ash	-1293
▁An	-1294
cies	-1295
omes	-1296
▁Fed	-1297
▁eng	-1298
▁non	-1299
▁tar	-1300
▁case	-1301
▁show	-1302
▁chang	-1303
▁child	-1304
▁press	-1305
▁stand	-1306
▁reforms	-1307
▁continue	-1308
▁spending	-1309
aim	-1310
ird	-1311
ted	-1312
▁ke	-1313
vere	-1314
▁bal	-1315
anies	-1316
iving	-1317
▁Comm	-1318
▁doll	-1319
▁though	-1320
▁decades	-1321
▁significant	-1322
sel	-1323
▁say	-1324
ivity	-1325
▁civil	-1326
▁price	-1327
▁almost	-1328
▁former	-1329
▁citizens	-1330
▁individual	-1331
ik	-1332
ix	-1333
arn	-1334
gin	-1335
rug	-1336
▁fe	-1337
estin	-1338
▁given	-1339
▁integ	-1340
ock	-1341
▁gr	-1342
▁One	-1343
▁rise	-1344
▁slow	-1345
urther	-1346
▁French	-1347
▁Turkey	-1348
▁member	-1349
▁emerging	-1350
▁companies	-1351
▁developing	-1352
io	-1353
hes	-1354
lim	-1355
ases	-1356
cent	-1357
▁cut	-1358
▁inn	-1359
ining	-1360
▁life	-1361
▁want	-1362
▁found	-1363
▁labor	-1364
▁women	-1365
▁inform	-1366
▁agreement	-1367
▁my	-1368
▁ph	-1369
imin	-1370
omet	-1371
itive	-1372
▁West	-1373
▁camp	-1374
▁rese	-1375
▁stud	-1376
change	-1377
▁defic	-1378
▁place	-1379
▁control	-1380
▁history	-1381
▁consider	-1382
be	-1383
way	-1384
▁Sh	-1385
▁ur	-1386
▁vi	-1387
▁Rep	-1388
▁ant	-1389
▁him	-1390
▁run	-1391
▁why	-1392
▁requi	-1393
itional	-1394
vention	-1395
▁Africa	-1396
▁Middle	-1397
▁target	-1398
▁serious	-1399
▁education	-1400
▁asse	-1401
▁deal	-1402
▁poor	-1403
▁Islam	-1404
▁const	-1405
▁local	-1406
▁seems	-1407
▁common	-1408
▁rights	-1409
▁British	-1410
▁Western	-1411
▁however	-1412
▁provide	-1413
▁strategy	-1414
▁investors	-1415
ave	-1416
▁fl	-1417
▁ru	-1418
ides	-1419
like	-1420
oura	-1421
sequ	-1422
▁New	-1423
▁cho	-1424
where	-1425
▁caus	-1426
▁coll	-1427
▁crit	-1428
▁number	-1429
▁contrib	-1430
▁growing	-1431
▁recently	-1432
wh	-1433
ope	-1434
▁dr	-1435
▁gu	-1436
ends	-1437
pite	-1438
▁Pal	-1439
▁Yet	-1440
▁fam	-1441
▁deep	-1442
▁unem	-1443
▁small	-1444
▁itself	-1445
▁within	-1446
▁challenge	-1447
▁different	-1448
▁potential	-1449
ON	-1450
rop	-1451
land	-1452
▁occ	-1453
izing	-1454
udget	-1455
▁What	-1456
▁cult	-1457
▁ever	-1458
▁oper	-1459
▁pres	-1460
▁spec	-1461
ention	-1462
iberal	-1463
▁event	-1464
▁house	-1465
▁innov	-1466
▁greater	-1467
▁increasingly	-1468
come	-1469
ents	-1470
ived	-1471
ling	-1472
▁ago	-1473
▁she	-1474
anced	-1475
▁Even	-1476
▁free	-1477
▁After	-1478
▁broad	-1479
▁claim	-1480
▁sense	-1481
▁think	-1482
▁sector	-1483
▁prevent	-1484
▁respons	-1485
▁relative	-1486
▁challenges	-1487
▁Part	-1488
▁care	-1489
▁meet	-1490
▁open	-1491
▁exist	-1492
▁reduce	-1493
▁reflect	-1494
▁Minister	-1495
▁regional	-1496
▁interests	-1497
cil	-1498
ards	-1499
oral	-1500
▁War	-1501
▁sav	-1502
▁you	-1503
▁find	-1504
▁pred	-1505
▁value	-1506
▁budget	-1507
▁simply	-1508
▁election	-1509
▁progress	-1510
for	-1511
igr	-1512
iod	-1513
urd	-1514
empt	-1515
erve	-1516
gypt	-1517
tain	-1518
▁Mus	-1519
▁enc	-1520
▁key	-1521
ences	-1522
▁When	-1523
▁face	-1524
▁used	-1525
iation	-1526
idence	-1527
▁Syria	-1528
rastructure	-1529
mak	-1530
nce	-1531
ront	-1532
▁gra	-1533
▁saf	-1534
ended	-1535
▁left	-1536
▁post	-1537
selves	-1538
▁North	-1539
▁fight	-1540
issions	-1541
▁access	-1542
▁regime	-1543
▁achieve	-1544
▁community	-1545
▁represent	-1546
▁5	-1547
kra	-1548
oid	-1549
ork	-1550
ield	-1551
▁sug	-1552
▁Ukra	-1553
▁best	-1554
▁coop	-1555
▁expl	-1556
▁half	-1557
▁Egypt	-1558
▁model	-1559
▁oppos	-1560
akistan	-1561
▁Muslim	-1562
▁further	-1563
▁effective	-1564
lex	-1565
▁UN	-1566
aign	-1567
ised	-1568
▁che	-1569
▁yet	-1570
aring	-1571
ators	-1572
epend	-1573
▁gain	-1574
ources	-1575
▁Korea	-1576
▁force	-1577
▁impact	-1578
▁return	-1579
▁efforts	-1580
▁services	-1581
te	-1582
ug	-1583
yn	-1584
ban	-1585
ool	-1586
ased	-1587
ners	-1588
reng	-1589
ways	-1590
yond	-1591
▁pat	-1592
▁comb	-1593
▁dang	-1594
▁head	-1595
▁init	-1596
▁once	-1597
▁viol	-1598
atives	-1599
▁early	-1600
▁streng	-1601
▁struct	-1602
▁Pakistan	-1603
▁campaign	-1604
▁conflict	-1605
▁understand	-1606
0.	-1607
MF	-1608
ier	-1609
the	-1610
▁bl	-1611
▁IMF	-1612
▁deb	-1613
▁tru	-1614
makers	-1615
ording	-1616
uation	-1617
▁build	-1618
▁ident	-1619
▁relig	-1620
▁direct	-1621
▁entire	-1622
▁suggest	-1623
▁benefits	-1624
▁infrastructure	-1625
ai	-1626
iqu	-1627
pid	-1628
▁Le	-1629
▁er	-1630
emoc	-1631
iate	-1632
▁emb	-1633
▁2008	-1634
isions	-1635
▁terms	-1636
▁during	-1637
▁extrem	-1638
▁parties	-1639
▁society	-1640
▁politics	-1641
▁unemployment	-1642
air	-1643
aken	-1644
side	-1645
▁net	-1646
arent	-1647
▁able	-1648
▁else	-1649
▁rule	-1650
▁lower	-1651
▁Greece	-1652
▁Russian	-1653
▁certain	-1654
▁improve	-1655
▁Palestin	-1656
▁children	-1657
ief	-1658
wide	-1659
▁bor	-1660
▁sec	-1661
ither	-1662
▁youn	-1663
lation	-1664
minist	-1665
▁While	-1666
▁create	-1667
▁forces	-1668
▁consequ	-1669
▁workers	-1670
▁Republic	-1671
▁population	-1672
haps	-1673
▁bar	-1674
▁big	-1675
oming	-1676
▁jobs	-1677
▁step	-1678
▁deter	-1679
▁action	-1680
▁commit	-1681
▁period	-1682
▁wealth	-1683
▁decision	-1684
▁exchange	-1685
▁establish	-1686
ift	-1687
ipl	-1688
utin	-1689
▁blo	-1690
▁cle	-1691
▁sch	-1692
▁unt	-1693
ified	-1694
▁Bush	-1695
▁bond	-1696
verage	-1697
▁avoid	-1698
conomic	-1699
▁making	-1700
▁promot	-1701
▁believe	-1702
▁project	-1703
▁strateg	-1704
▁administ	-1705
▁officials	-1706
arm	-1707
down	-1708
▁bre	-1709
▁min	-1710
▁ren	-1711
▁tal	-1712
ising	-1713
▁Cent	-1714
▁each	-1715
▁sing	-1716
gether	-1717
▁These	-1718
▁funda	-1719
▁accept	-1720
▁others	-1721
▁second	-1722
▁balance	-1723
▁together	-1724
▁Cl	-1725
▁Sa	-1726
▁la	-1727
ises	-1728
just	-1729
oday	-1730
▁ask	-1731
▁Such	-1732
▁fear	-1733
▁Prime	-1734
▁begin	-1735
▁pract	-1736
▁somet	-1737
▁whose	-1738
▁German	-1739
▁danger	-1740
▁issues	-1741
▁refuge	-1742
▁industr	-1743
▁program	-1744
▁measures	-1745
▁emissions	-1746
▁stability	-1747
▁leadership	-1748
▁themselves	-1749
▁International	-1750
cl	-1751
mm	-1752
ata	-1753
▁Ar	-1754
irst	-1755
onal	-1756
wise	-1757
▁old	-1758
arian	-1759
ledge	-1760
order	-1761
▁home	-1762
▁mean	-1763
▁mult	-1764
▁Today	-1765
▁risks	-1766
▁ensure	-1767
▁Ukraine	-1768
▁information	-1769
az	-1770
ys	-1771
pro	-1772
gent	-1773
▁bad	-1774
▁sit	-1775
▁said	-1776
▁stat	-1777
though	-1778
▁domin	-1779
▁simil	-1780
▁young	-1781
ression	-1782
ruction	-1783
▁always	-1784
▁necess	-1785
▁unlike	-1786
▁encoura	-1787
▁position	-1788
▁household	-1789
▁conditions	-1790
by	-1791
▁6	-1792
▁Q	-1793
bon	-1794
ins	-1795
rat	-1796
▁By	-1797
duct	-1798
ided	-1799
rate	-1800
▁vis	-1801
▁char	-1802
▁five	-1803
▁food	-1804
▁keep	-1805
▁look	-1806
▁self	-1807
ouncil	-1808
▁Putin	-1809
▁legal	-1810
▁excess	-1811
▁rising	-1812
▁single	-1813
▁recover	-1814
▁research	-1815
▁increased	-1816
▁technology	-1817
▁consumption	-1818
▁opportunity	-1819
▁policymakers	-1820
▁Of	-1821
▁198	-1822
▁Pol	-1823
▁Res	-1824
istic	-1825
▁Many	-1826
▁argu	-1827
▁hope	-1828
▁kind	-1829
▁norm	-1830
▁purs	-1831
▁seek	-1832
▁weap	-1833
ession	-1834
icient	-1835
▁boost	-1836
▁issue	-1837
▁never	-1838
▁levels	-1839
▁modern	-1840
▁report	-1841
▁independ	-1842
▁Americans	-1843
▁employment	-1844
20	-1845
ium	-1846
imul	-1847
ival	-1848
▁Fin	-1849
▁dou	-1850
▁ess	-1851
▁lack	-1852
▁vict	-1853
▁word	-1854
▁areas	-1855
▁close	-1856
▁rules	-1857
▁times	-1858
agement	-1859
▁called	-1860
▁months	-1861
▁Britain	-1862
▁liberal	-1863
▁implement	-1864
ec	-1865
ify	-1866
man	-1867
abil	-1868
aged	-1869
▁Pro	-1870
▁abs	-1871
▁top	-1872
incip	-1873
iting	-1874
ource	-1875
▁dest	-1876
▁fuel	-1877
▁prim	-1878
▁sure	-1879
▁Party	-1880
▁influ	-1881
▁amount	-1882
▁beyond	-1883
▁corpor	-1884
▁regard	-1885
▁sovere	-1886
▁stimul	-1887
ortunately	-1888
▁resources	-1889
▁cooperation	-1890
▁negotiations	-1891
CB	-1892
lia	-1893
raw	-1894
▁UK	-1895
▁sl	-1896
▁ty	-1897
ured	-1898
aging	-1899
ights	-1900
▁Fund	-1901
▁Some	-1902
▁came	-1903
▁coal	-1904
▁dise	-1905
▁kill	-1906
▁news	-1907
ateral	-1908
▁bring	-1909
▁invol	-1910
▁party	-1911
▁across	-1912
▁decade	-1913
▁dollar	-1914
▁effort	-1915
▁constit	-1916
▁finance	-1917
▁leading	-1918
▁princip	-1919
▁respect	-1920
▁advanced	-1921
▁maintain	-1922
▁consequences	-1923
▁administration	-1924
▁wr	-1925
acks	-1926
pped	-1927
▁spe	-1928
veral	-1929
▁adop	-1930
▁data	-1931
▁prec	-1932
▁rece	-1933
▁subs	-1934
ctions	-1935
overty	-1936
▁based	-1937
▁rapid	-1938
▁taken	-1939
ination	-1940
iveness	-1941
▁employ	-1942
▁Council	-1943
▁century	-1944
▁Japanese	-1945
▁powerful	-1946
0’	-1947
1,	-1948
RI	-1949
▁7	-1950
ody	-1951
udi	-1952
▁opt	-1953
▁tem	-1954
ieved	-1955
oviet	-1956
▁Afgh	-1957
▁flow	-1958
▁loss	-1959
ensive	-1960
▁behav	-1961
▁immed	-1962
▁makes	-1963
▁surpr	-1964
quality	-1965
utional	-1966
▁depend	-1967
▁groups	-1968
igration	-1969
▁particip	-1970
▁opposition	-1971
lt	-1972
to	-1973
▁En	-1974
ceed	-1975
ighb	-1976
rend	-1977
▁Con	-1978
▁dam	-1979
▁met	-1980
ories	-1981
▁Inst	-1982
▁fast	-1983
▁perm	-1984
ternal	-1985
▁Given	-1986
▁began	-1987
▁class	-1988
▁quick	-1989
igrants	-1990
▁Govern	-1991
▁borrow	-1992
▁failed	-1993
▁school	-1994
▁deficit	-1995
▁massive	-1996
▁possible	-1997
▁necessary	-1998
ean	-1999
ien	-2000
ned	-2001
rag	-2002
▁Sp	-2003
mber	-2004
ming	-2005
rupt	-2006
then	-2007
▁Bar	-2008
▁agg	-2009
▁dev	-2010
▁jud	-2011
ctors	-2012
iding	-2013
rated	-2014
▁four	-2015
▁full	-2016
▁path	-2017
▁read	-2018
▁test	-2019
▁thus	-2020
▁Afghan	-2021
▁transp	-2022
▁values	-2023
ilateral	-2024
▁changes	-2025
▁despite	-2026
▁limited	-2027
▁poverty	-2028
▁developed	-2029
▁transform	-2030
▁Commission	-2031
▁strengthen	-2032
0,	-2033
agn	-2034
ton	-2035
zer	-2036
▁Ge	-2037
▁led	-2038
▁mar	-2039
iplom	-2040
▁done	-2041
▁lost	-2042
▁near	-2043
▁Democ	-2044
▁State	-2045
▁funds	-2046
▁Soviet	-2047
▁debate	-2048
▁neighb	-2049
iversity	-2050
▁Develop	-2051
▁Instead	-2052
▁failure	-2053
▁politic	-2054
▁prosper	-2055
▁similar	-2056
▁expected	-2057
▁partners	-2058
▁protection	-2059
dom	-2060
ler	-2061
med	-2062
tle	-2063
enda	-2064
uted	-2065
▁mov	-2066
▁unc	-2067
▁var	-2068
acity	-2069
ously	-2070
▁away	-2071
▁clos	-2072
▁drug	-2073
▁until	-2074
liament	-2075
▁Global	-2076
▁diplom	-2077
▁Nations	-2078
▁ability	-2079
▁respond	-2080
▁Z	-2081
fer	-2082
lin	-2083
rad	-2084
rec	-2085
▁How	-2086
▁aim	-2087
▁amb	-2088
▁win	-2089
ember	-2090
lying	-2091
▁Cong	-2092
▁mind	-2093
▁Italy	-2094
▁Saudi	-2095
▁legit	-2096
▁reven	-2097
▁water	-2098
▁leader	-2099
▁nearly	-2100
▁scient	-2101
▁African	-2102
▁Central	-2103
▁behavior	-2104
▁requires	-2105
▁democratic	-2106
TO	-2107
aid	-2108
lac	-2109
▁Ag	-2110
▁ir	-2111
exic	-2112
iver	-2113
▁All	-2114
▁Par	-2115
▁day	-2116
▁don	-2117
▁lat	-2118
▁obs	-2119
atory	-2120
▁Most	-2121
▁huge	-2122
▁prob	-2123
▁break	-2124
▁demon	-2125
itarian	-2126
▁histor	-2127
▁subsid	-2128
▁things	-2129
ological	-2130
▁attempt	-2131
▁collect	-2132
▁largely	-2133
▁predict	-2134
▁weapons	-2135
▁Internet	-2136
▁minister	-2137
▁previous	-2138
▁decisions	-2139
▁following	-2140
▁recognize	-2141
▁religious	-2142
▁worldwide	-2143
▁integration	-2144
▁presidential	-2145
▁relationship	-2146
mb	-2147
ya	-2148
leg	-2149
raz	-2150
reg	-2151
hood	-2152
nect	-2153
onse	-2154
rade	-2155
▁aid	-2156
▁ten	-2157
erves	-2158
ought	-2159
▁goal	-2160
▁sent	-2161
▁true	-2162
▁owing	-2163
▁reach	-2164
▁shift	-2165
▁third	-2166
▁ground	-2167
▁record	-2168
▁voters	-2169
▁counter	-2170
▁discuss	-2171
▁natural	-2172
▁organiz	-2173
▁several	-2174
▁response	-2175
▁elections	-2176
▁successful	-2177
▁productivity	-2178
5,	-2179
els	-2180
▁ECB	-2181
▁Lat	-2182
▁del	-2183
▁ill	-2184
▁rat	-2185
▁tot	-2186
owers	-2187
▁live	-2188
▁Mexic	-2189
▁alone	-2190
▁comes	-2191
▁firms	-2192
▁initi	-2193
▁taxes	-2194
illions	-2195
▁altern	-2196
▁assets	-2197
▁having	-2198
▁propos	-2199
▁Israeli	-2200
▁banking	-2201
▁benefit	-2202
▁savings	-2203
▁systems	-2204
▁working	-2205
▁external	-2206
▁industry	-2207
▁recovery	-2208
▁solution	-2209
▁knowledge	-2210
▁something	-2211
▁production	-2212
▁revolution	-2213
▁environment	-2214
▁established	-2215
▁environmental	-2216
▁opportunities	-2217
sw	-2218
set	-2219
▁NA	-2220
▁Or	-2221
ched	-2222
cial	-2223
oint	-2224
reen	-2225
▁197	-2226
▁gas	-2227
▁reb	-2228
▁vol	-2229
alled	-2230
andid	-2231
arter	-2232
ently	-2233
iment	-2234
▁King	-2235
▁anti	-2236
▁desc	-2237
▁stock	-2238
▁subst	-2239
▁worse	-2240
ltimate	-2241
▁candid	-2242
▁incent	-2243
▁inclus	-2244
▁larger	-2245
▁matter	-2246
▁middle	-2247
▁status	-2248
▁popular	-2249
▁capacity	-2250
▁existing	-2251
kn	-2252
oh	-2253
ees	-2254
ina	-2255
irc	-2256
orn	-2257
put	-2258
▁Pe	-2259
▁ge	-2260
▁ve	-2261
▁Now	-2262
▁nar	-2263
▁san	-2264
based	-2265
▁First	-2266
▁Latin	-2267
▁above	-2268
▁activ	-2269
▁later	-2270
▁occur	-2271
▁total	-2272
▁trend	-2273
▁union	-2274
ensions	-2275
istance	-2276
▁affect	-2277
▁agenda	-2278
▁either	-2279
▁powers	-2280
▁supply	-2281
▁average	-2282
▁demonst	-2283
▁willing	-2284
▁Security	-2285
▁competit	-2286
▁situation	-2287
▁strategic	-2288
▁innovation	-2289
dd	-2290
ee	-2291
▁X	-2292
ici	-2293
lig	-2294
omb	-2295
▁$1	-2296
rams	-2297
▁mis	-2298
▁mob	-2299
thing	-2300
▁land	-2301
▁mess	-2302
▁rele	-2303
▁ways	-2304
market	-2305
reedom	-2306
▁gradu	-2307
▁media	-2308
▁wrong	-2309
▁adjust	-2310
▁expand	-2311
▁proper	-2312
entially	-2313
▁created	-2314
▁effects	-2315
▁explain	-2316
▁general	-2317
▁National	-2318
▁Afghanistan	-2319
▁Development	-2320
bi	-2321
ape	-2322
▁sk	-2323
rist	-2324
uing	-2325
▁Acc	-2326
▁Med	-2327
▁Sim	-2328
▁arr	-2329
▁den	-2330
▁job	-2331
▁unp	-2332
arily	-2333
gence	-2334
inary	-2335
▁2013	-2336
▁Geor	-2337
▁answ	-2338
▁deli	-2339
▁hand	-2340
▁idea	-2341
▁soon	-2342
▁wide	-2343
▁argue	-2344
▁bonds	-2345
▁cause	-2346
▁words	-2347
ception	-2348
holders	-2349
▁annual	-2350
▁export	-2351
▁underm	-2352
▁Islamic	-2353
▁clearly	-2354
▁nothing	-2355
▁quickly	-2356
▁sectors	-2357
▁prospect	-2358
▁substant	-2359
▁unlikely	-2360
▁solutions	-2361
▁experience	-2362
▁particular	-2363
▁authorities	-2364
▁fundamental	-2365
3%	-2366
EW	-2367
sh	-2368
uf	-2369
het	-2370
irt	-2371
oup	-2372
head	-2373
olic	-2374
ored	-2375
▁Mon	-2376
▁NEW	-2377
▁Per	-2378
▁fav	-2379
razil	-2380
▁cuts	-2381
▁give	-2382
▁miss	-2383
▁pass	-2384
▁prep	-2385
▁surv	-2386
retary	-2387
▁along	-2388
▁assum	-2389
▁avail	-2390
▁learn	-2391
▁moral	-2392
▁object	-2393
▁taking	-2394
▁Federal	-2395
▁outside	-2396
▁Congress	-2397
▁reserves	-2398
▁attention	-2399
▁corporate	-2400
▁elsewhere	-2401
fortunately	-2402
▁governance	-2403
▁relatively	-2404
▁sustainable	-2405
▁traditional	-2406
▁organizations	-2407
4,	-2408
50	-2409
9,	-2410
OR	-2411
▁Be	-2412
▁cy	-2413
chan	-2414
lete	-2415
ream	-2416
year	-2417
▁May	-2418
▁cru	-2419
▁wee	-2420
▁Cons	-2421
rought	-2422
▁super	-2423
roughly	-2424
▁Indian	-2425
▁coming	-2426
▁spread	-2427
▁attract	-2428
▁extreme	-2429
▁perhaps	-2430
▁creation	-2431
▁majority	-2432
▁programs	-2433
▁proposed	-2434
▁reducing	-2435
▁refugees	-2436
▁dangerous	-2437
▁financing	-2438
▁uncertain	-2439
▁increasing	-2440
▁inequality	-2441
▁prosperity	-2442
▁structural	-2443
▁Palestinian	-2444
▁investments	-2445
▁intervention	-2446
▁8	-2447
acc	-2448
ene	-2449
une	-2450
▁II	-2451
▁hy	-2452
oing	-2453
ring	-2454
ufact	-2455
▁stop	-2456
▁vote	-2457
porary	-2458
▁Greek	-2459
▁analy	-2460
▁basic	-2461
▁enter	-2462
▁purch	-2463
▁Brazil	-2464
▁announ	-2465
▁commod	-2466
▁disast	-2467
▁implic	-2468
▁source	-2469
▁treaty	-2470
▁connect	-2471
▁distrib	-2472
▁forward	-2473
▁obvious	-2474
▁overall	-2475
ltimately	-2476
▁contrast	-2477
▁determin	-2478
▁probably	-2479
▁violence	-2480
▁influence	-2481
▁societies	-2482
▁standards	-2483
▁technologies	-2484
▁globalization	-2485
-1	-2486
IN	-2487
ni	-2488
ots	-2489
rep	-2490
▁Ab	-2491
▁Sc	-2492
ison	-2493
lies	-2494
olit	-2495
▁ear	-2496
▁eth	-2497
▁mom	-2498
aries	-2499
force	-2500
uster	-2501
while	-2502
▁Like	-2503
▁earn	-2504
▁late	-2505
action	-2506
encies	-2507
▁Asian	-2508
▁Since	-2509
▁calls	-2510
▁death	-2511
▁doing	-2512
▁heart	-2513
▁known	-2514
▁offer	-2515
▁prior	-2516
ruption	-2517
▁accomp	-2518
▁behind	-2519
▁caused	-2520
▁indeed	-2521
▁nature	-2522
▁reject	-2523
▁exports	-2524
▁results	-2525
▁roughly	-2526
▁concerns	-2527
▁contract	-2528
▁cultural	-2529
▁evidence	-2530
▁stimulus	-2531
▁excessive	-2532
▁households	-2533
▁parliament	-2534
▁Unfortunately	-2535
ne	-2536
ane	-2537
lif	-2538
ols	-2539
ung	-2540
▁0.	-2541
▁30	-2542
▁Ex	-2543
ogra	-2544
▁Sec	-2545
▁exc	-2546
▁ign	-2547
▁men	-2548
▁mot	-2549
▁sus	-2550
iance	-2551
lfare	-2552
pping	-2553
▁easy	-2554
▁feel	-2555
▁heav	-2556
▁host	-2557
▁laun	-2558
▁plac	-2559
▁side	-2560
eneral	-2561
▁resol	-2562
▁stagn	-2563
▁thous	-2564
▁Mexico	-2565
▁agreed	-2566
▁attack	-2567
▁carbon	-2568
▁cities	-2569
▁living	-2570
▁territ	-2571
▁vision	-2572
▁company	-2573
▁largest	-2574
▁perform	-2575
▁univers	-2576
▁welfare	-2577
▁creating	-2578
▁manufact	-2579
▁required	-2580
▁Europeans	-2581
▁terrorism	-2582
▁businesses	-2583
▁throughout	-2584
▁alternative	-2585
▁politicians	-2586
af	-2587
mp	-2588
ox	-2589
▁-	-2590
arp	-2591
▁1.	-2592
▁sw	-2593
rary	-2594
zero	-2595
▁cat	-2596
ented	-2597
inton	-2598
itted	-2599
▁circ	-2600
▁imag	-2601
▁mere	-2602
▁poll	-2603
urance	-2604
▁divid	-2605
▁goods	-2606
▁legis	-2607
▁scale	-2608
▁twent	-2609
▁urban	-2610
century	-2611
iciency	-2612
ossible	-2613
ressive	-2614
ulation	-2615
▁Arabia	-2616
▁Christ	-2617
▁Though	-2618
▁answer	-2619
▁crises	-2620
▁helped	-2621
▁moment	-2622
▁Clinton	-2623
▁Kingdom	-2624
▁brought	-2625
▁decline	-2626
▁defense	-2627
▁deliver	-2628
▁dollars	-2629
▁meeting	-2630
▁outcome	-2631
▁reality	-2632
▁pressure	-2633
▁suggests	-2634
▁According	-2635
▁Secretary	-2636
▁according	-2637
▁sovereign	-2638
-20	-2639
bsp	-2640
ext	-2641
hem	-2642
ili	-2643
loc	-2644
urm	-2645
▁Sw	-2646
iety	-2647
iter	-2648
ites	-2649
line	-2650
nbsp	-2651
▁Ham	-2652
▁Jew	-2653
▁let	-2654
▁six	-2655
ature	-2656
iquid	-2657
oring	-2658
osing	-2659
▁Aust	-2660
▁NATO	-2661
▁burd	-2662
▁game	-2663
▁netw	-2664
▁summ	-2665
ressed	-2666
ricult	-2667
undred	-2668
▁cases	-2669
▁doubt	-2670
▁indic	-2671
▁loans	-2672
▁thing	-2673
chanism	-2674
▁advant	-2675
▁border	-2676
▁elimin	-2677
▁facing	-2678
▁really	-2679
usterity	-2680
▁Muslims	-2681
▁Reserve	-2682
▁conclud	-2683
▁freedom	-2684
▁protest	-2685
▁reduced	-2686
▁Economic	-2687
▁movement	-2688
▁products	-2689
▁stronger	-2690
▁thinking	-2691
▁recession	-2692
▁agreements	-2693
▁economists	-2694
▁impossible	-2695
▁industrial	-2696
7%	-2697
▁9	-2698
alk	-2699
ets	-2700
rex	-2701
vit	-2702
▁No	-2703
apse	-2704
ibly	-2705
lier	-2706
omin	-2707
rats	-2708
▁Ass	-2709
▁Dep	-2710
▁Soc	-2711
▁div	-2712
▁rad	-2713
▁typ	-2714
aving	-2715
▁hous	-2716
▁orig	-2717
▁repe	-2718
▁safe	-2719
▁seen	-2720
▁took	-2721
ancing	-2722
ansion	-2723
ograph	-2724
▁Simil	-2725
▁aband	-2726
▁asset	-2727
▁front	-2728
▁ideas	-2729
▁imper	-2730
▁sharp	-2731
unction	-2732
▁Barack	-2733
▁assess	-2734
▁choice	-2735
▁normal	-2736
▁office	-2737
▁demands	-2738
▁legitim	-2739
▁reasons	-2740
▁communic	-2741
▁experien	-2742
▁negative	-2743
▁trillion	-2744
▁austerity	-2745
▁continued	-2746
▁continues	-2747
▁creditors	-2748
▁immediate	-2749
▁terrorist	-2750
▁Republican	-2751
▁incentives	-2752
▁politically	-2753
▁responsibility	-2754
ER	-2755
do	-2756
ann	-2757
erb	-2758
roe	-2759
unt	-2760
val	-2761
▁Pl	-2762
ator	-2763
eria	-2764
iers	-2765
ills	-2766
rain	-2767
rust	-2768
utes	-2769
▁Lib	-2770
▁air	-2771
▁cal	-2772
▁deg	-2773
▁dyn	-2774
▁flo	-2775
▁ste	-2776
ensus	-2777
power	-2778
ulner	-2779
uries	-2780
▁Mean	-2781
▁days	-2782
▁fram	-2783
▁pain	-2784
▁rein	-2785
▁rich	-2786
▁tend	-2787
▁virt	-2788
called	-2789
sector	-2790
▁Other	-2791
▁ahead	-2792
▁using	-2793
▁worth	-2794
▁became	-2795
▁liquid	-2796
▁urgent	-2797
▁abandon	-2798
▁appears	-2799
▁describ	-2800
▁instead	-2801
▁matters	-2802
▁present	-2803
▁service	-2804
ification	-2805
▁becoming	-2806
▁collapse	-2807
▁projects	-2808
▁available	-2809
▁expansion	-2810
▁importance	-2811
▁individuals	-2812
bo	-2813
sy	-2814
ani	-2815
aul	-2816
ech	-2817
erc	-2818
men	-2819
pir	-2820
rel	-2821
▁18	-2822
draw	-2823
emic	-2824
ired	-2825
olid	-2826
ones	-2827
raft	-2828
requ	-2829
ular	-2830
▁Des	-2831
▁Har	-2832
▁har	-2833
▁mac	-2834
▁red	-2835
rexit	-2836
▁area	-2837
▁coup	-2838
▁mark	-2839
▁purp	-2840
▁surp	-2841
ension	-2842
▁cross	-2843
▁drive	-2844
▁explo	-2845
▁favor	-2846
▁green	-2847
▁leave	-2848
▁recon	-2849
▁story	-2850
▁study	-2851
▁takes	-2852
▁trust	-2853
▁People	-2854
▁critic	-2855
▁design	-2856
▁easing	-2857
▁engine	-2858
▁latest	-2859
▁origin	-2860
▁output	-2861
▁points	-2862
▁trying	-2863
▁Eastern	-2864
▁disease	-2865
▁hundred	-2866
▁percent	-2867
▁produce	-2868
▁thereby	-2869
▁actually	-2870
▁agricult	-2871
▁argument	-2872
▁contrary	-2873
▁Meanwhile	-2874
▁providing	-2875
▁resulting	-2876
▁generation	-2877
▁competition	-2878
▁competitive	-2879
▁independence	-2880
▁competitiveness	-2881
60	-2882
DG	-2883
my	-2884
pl	-2885
add	-2886
ris	-2887
aper	-2888
augh	-2889
hers	-2890
know	-2891
lled	-2892
ourn	-2893
part	-2894
vant	-2895
ware	-2896
▁Rev	-2897
▁bat	-2898
▁bro	-2899
ached	-2900
aches	-2901
ology	-2902
ulate	-2903
▁Just	-2904
▁Last	-2905
▁Only	-2906
▁dram	-2907
ashing	-2908
income	-2909
opolit	-2910
orders	-2911
▁Leban	-2912
▁assoc	-2913
▁cover	-2914
▁gains	-2915
▁goals	-2916
▁raise	-2917
▁Syrian	-2918
▁highly	-2919
▁inevit	-2920
▁severe	-2921
▁attacks	-2922
▁finally	-2923
▁funding	-2924
▁housing	-2925
▁precise	-2926
▁rapidly	-2927
▁threats	-2928
▁victory	-2929
▁Monetary	-2930
▁achieved	-2931
▁happened	-2932
▁millions	-2933
▁personal	-2934
▁withdraw	-2935
▁certainly	-2936
▁continent	-2937
▁currently	-2938
▁increases	-2939
▁sanctions	-2940
▁thousands	-2941
▁addressing	-2942
▁eventually	-2943
▁industries	-2944
▁legitimacy	-2945
▁management	-2946
▁ultimately	-2947
▁communities	-2948
▁Palestinians	-2949
▁technological	-2950
AN	-2951
ih	-2952
arc	-2953
hel	-2954
off	-2955
oks	-2956
▁15	-2957
▁ce	-2958
lant	-2959
orks	-2960
rugg	-2961
▁20%	-2962
▁Cam	-2963
▁Col	-2964
▁Jan	-2965
▁Mer	-2966
▁Not	-2967
▁buy	-2968
▁det	-2969
▁dig	-2970
▁ord	-2971
▁pan	-2972
▁pun	-2973
▁unf	-2974
▁won	-2975
erate	-2976
onald	-2977
raint	-2978
rowth	-2979
usion	-2980
▁Sept	-2981
▁book	-2982
▁conv	-2983
▁held	-2984
▁phys	-2985
▁reve	-2986
▁size	-2987
iately	-2988
lished	-2989
orters	-2990
ortion	-2991
ournal	-2992
▁Great	-2993
▁dynam	-2994
▁equal	-2995
▁flows	-2996
▁lives	-2997
▁occup	-2998
▁quant	-2999
▁shown	-3000
▁sound	-3001
▁surve	-3002
▁wants	-3003
▁whole	-3004
▁afford	-3005
▁easily	-3006
▁enable	-3007
▁family	-3008
▁losses	-3009
▁pursue	-3010
▁refere	-3011
▁vulner	-3012
▁Despite	-3013
▁Finally	-3014
▁concent	-3015
▁message	-3016
▁pattern	-3017
▁primary	-3018
▁regions	-3019
▁complete	-3020
▁positive	-3021
▁supposed	-3022
▁September	-3023
▁beginning	-3024
▁economics	-3025
▁essential	-3026
▁mechanism	-3027
▁principle	-3028
▁commitment	-3029
▁confidence	-3030
▁corruption	-3031
▁efficiency	-3032
▁regulation	-3033
oy	-3034
ORK	-3035
aff	-3036
eng	-3037
kel	-3038
osp	-3039
▁ep	-3040
ario	-3041
imal	-3042
lish	-3043
rict	-3044
rodu	-3045
▁His	-3046
▁Sun	-3047
▁age	-3048
▁der	-3049
▁dim	-3050
▁mal	-3051
▁try	-3052
▁uns	-3053
▁wat	-3054
comes	-3055
fully	-3056
iated	-3057
laced	-3058
lands	-3059
minbi	-3060
right	-3061
ustom	-3062
▁2007	-3063
▁2015	-3064
▁June	-3065
▁YORK	-3066
▁adap	-3067
▁flex	-3068
▁paid	-3069
▁whom	-3070
ustain	-3071
▁Hamas	-3072
▁Treat	-3073
▁aimed	-3074
▁sides	-3075
▁steps	-3076
itative	-3077
▁acknow	-3078
▁allies	-3079
▁claims	-3080
▁extent	-3081
▁perman	-3082
▁widely	-3083
▁General	-3084
▁allowed	-3085
▁complex	-3086
▁culture	-3087
▁factors	-3088
▁promote	-3089
▁quarter	-3090
ventional	-3091
▁Likewise	-3092
▁confront	-3093
▁consolid	-3094
▁deficits	-3095
▁followed	-3096
▁internal	-3097
▁outcomes	-3098
▁slowdown	-3099
roeconomic	-3100
▁coalition	-3101
▁deflation	-3102
▁neighbors	-3103
▁additional	-3104
▁collective	-3105
▁transition	-3106
▁credibility	-3107
▁possibility	-3108
▁construction	-3109
1.	-3110
EN	-3111
ety	-3112
que	-3113
tic	-3114
uth	-3115
▁Ke	-3116
▁bi	-3117
ault	-3118
hens	-3119
hips	-3120
lied	-3121
ried	-3122
▁fed	-3123
▁lot	-3124
▁pub	-3125
▁sen	-3126
ender	-3127
ework	-3128
ients	-3129
lling	-3130
polic	-3131
▁2012	-3132
▁boom	-3133
▁exec	-3134
▁firm	-3135
▁harm	-3136
▁lose	-3137
▁mach	-3138
▁scen	-3139
▁vast	-3140
atever	-3141
idered	-3142
racies	-3143
▁House	-3144
▁Paris	-3145
▁Spain	-3146
▁Trade	-3147
▁below	-3148
▁embra	-3149
▁extra	-3150
▁fully	-3151
▁minor	-3152
▁secur	-3153
ference	-3154
ovember	-3155
▁Treaty	-3156
▁abroad	-3157
▁appear	-3158
▁argued	-3159
▁burden	-3160
▁damage	-3161
▁equity	-3162
▁expert	-3163
▁shared	-3164
▁stabil	-3165
▁stable	-3166
▁strugg	-3167
▁Perhaps	-3168
▁comprom	-3169
▁conduct	-3170
▁subject	-3171
▁surplus	-3172
▁targets	-3173
▁warming	-3174
▁accounts	-3175
▁apparent	-3176
▁critical	-3177
▁geopolit	-3178
▁overcome	-3179
▁received	-3180
▁reflects	-3181
▁renminbi	-3182
▁Christian	-3183
▁Similarly	-3184
▁encourage	-3185
▁insurance	-3186
▁liquidity	-3187
▁migration	-3188
▁precisely	-3189
▁considered	-3190
▁effectively	-3191
▁performance	-3192
▁considerable	-3193
▁expectations	-3194
▁significantly	-3195
la	-3196
of	-3197
The	-3198
ats	-3199
ilt	-3200
ita	-3201
lar	-3202
ohn	-3203
ony	-3204
oot	-3205
oph	-3206
par	-3207
sis	-3208
uck	-3209
umb	-3210
use	-3211
▁CA	-3212
▁Gu	-3213
▁Kh	-3214
ique	-3215
look	-3216
mers	-3217
rich	-3218
▁100	-3219
▁Gaz	-3220
▁Its	-3221
▁bub	-3222
▁era	-3223
▁fri	-3224
▁hit	-3225
▁tas	-3226
▁wit	-3227
asion	-3228
light	-3229
third	-3230
▁2009	-3231
▁Comp	-3232
▁From	-3233
▁bail	-3234
▁dead	-3235
▁line	-3236
▁mist	-3237
▁road	-3238
▁sett	-3239
▁sold	-3240
▁star	-3241
▁stem	-3242
▁talk	-3243
▁week	-3244
▁zero	-3245
acific	-3246
illing	-3247
▁asked	-3248
▁basis	-3249
▁forms	-3250
▁parts	-3251
▁ready	-3252
▁serve	-3253
▁shock	-3254
▁wages	-3255
▁yield	-3256
ilities	-3257
▁Argent	-3258
▁George	-3259
▁Merkel	-3260
▁events	-3261
▁narrow	-3262
▁planet	-3263
▁safety	-3264
▁seemed	-3265
▁simple	-3266
▁summit	-3267
▁victim	-3268
▁Austral	-3269
▁Lebanon	-3270
▁becomes	-3271
▁conserv	-3272
▁emerged	-3273
▁enterpr	-3274
▁falling	-3275
▁focused	-3276
▁quality	-3277
▁science	-3278
▁thought	-3279
▁November	-3280
▁building	-3281
▁entirely	-3282
▁referend	-3283
▁repeated	-3284
▁revenues	-3285
▁advantage	-3286
▁authority	-3287
▁concerned	-3288
▁consensus	-3289
▁subsidies	-3290
▁suffering	-3291
▁temporary	-3292
▁contribute	-3293
▁immigrants	-3294
▁percentage	-3295
▁regulatory	-3296
▁stagnation	-3297
▁institutional	-3298
200	-3299
gen	-3300
ios	-3301
oil	-3302
rew	-3303
war	-3304
▁$3	-3305
▁12	-3306
▁Br	-3307
▁My	-3308
angu	-3309
care	-3310
icip	-3311
itud	-3312
izes	-3313
ocks	-3314
reet	-3315
used	-3316
vert	-3317
▁Net	-3318
▁Non	-3319
▁Sen	-3320
▁enj	-3321
▁hop	-3322
▁mut	-3323
▁sex	-3324
ables	-3325
anted	-3326
going	-3327
ondon	-3328
reced	-3329
riers	-3330
verse	-3331
▁Dece	-3332
▁Kurd	-3333
▁cash	-3334
▁dict	-3335
▁link	-3336
▁pack	-3337
▁port	-3338
▁save	-3339
▁soft	-3340
▁spir	-3341
▁tell	-3342
ellect	-3343
ishing	-3344
istent	-3345
lantic	-3346
policy	-3347
▁Sunni	-3348
▁autom	-3349
▁bound	-3350
▁colle	-3351
▁diver	-3352
▁estim	-3353
▁hands	-3354
▁stake	-3355
▁tight	-3356
▁tools	-3357
raction	-3358
▁appeal	-3359
▁causes	-3360
▁killed	-3361
▁models	-3362
▁nation	-3363
▁person	-3364
▁turned	-3365
▁bankers	-3366
▁crucial	-3367
▁elected	-3368
▁facilit	-3369
▁incomes	-3370
▁introdu	-3371
▁involve	-3372
▁meaning	-3373
▁restore	-3374
▁special	-3375
reciation	-3376
▁December	-3377
▁believed	-3378
▁compared	-3379
▁consumer	-3380
▁everyone	-3381
▁migrants	-3382
▁perspect	-3383
▁provided	-3384
▁tensions	-3385
▁unpreced	-3386
liferation	-3387
▁announced	-3388
▁commodity	-3389
▁questions	-3390
▁Democratic	-3391
▁regulations	-3392
▁responsible	-3393
▁implications	-3394
▁unprecedented	-3395
;&	-3396
▁€	-3397
DON	-3398
enn	-3399
eur	-3400
hib	-3401
nam	-3402
uff	-3403
urt	-3404
▁Er	-3405
▁Go	-3406
▁Xi	-3407
airs	-3408
alem	-3409
cape	-3410
cont	-3411
enth	-3412
etic	-3413
iles	-3414
kish	-3415
long	-3416
nces	-3417
ober	-3418
oman	-3419
oses	-3420
phas	-3421
▁Abe	-3422
▁Dav	-3423
▁LON	-3424
▁Nor	-3425
▁fig	-3426
▁fix	-3427
▁hon	-3428
▁pus	-3429
▁rob	-3430
▁sil	-3431
▁squ	-3432
▁suc	-3433
▁sum	-3434
hetor	-3435
ossil	-3436
▁Cold	-3437
▁John	-3438
▁acce	-3439
▁bene	-3440
▁fair	-3441
▁laws	-3442
▁push	-3443
ancial	-3444
▁1990’	-3445
▁2010,	-3446
▁Those	-3447
▁chann	-3448
▁ended	-3449
▁field	-3450
▁mater	-3451
▁react	-3452
▁rural	-3453
▁tried	-3454
▁truth	-3455
▁Commun	-3456
▁Donald	-3457
▁LONDON	-3458
▁London	-3459
▁Second	-3460
▁Social	-3461
▁happen	-3462
▁infect	-3463
▁manage	-3464
▁merely	-3465
▁partly	-3466
▁rhetor	-3467
▁saving	-3468
▁senior	-3469
▁sought	-3470
▁speech	-3471
▁stands	-3472
▁useful	-3473
▁adopted	-3474
▁collaps	-3475
▁opening	-3476
▁revenue	-3477
▁succeed	-3478
▁underst	-3479
▁witness	-3480
abilities	-3481
▁allowing	-3482
▁although	-3483
▁diseases	-3484
▁identify	-3485
▁intended	-3486
▁networks	-3487
▁populist	-3488
▁produced	-3489
▁rational	-3490
▁students	-3491
▁candidate	-3492
▁consumers	-3493
▁framework	-3494
▁fundament	-3495
▁improving	-3496
▁intellect	-3497
▁reduction	-3498
▁virtually	-3499
▁activities	-3500
▁approaches	-3501
▁assistance	-3502
▁initiative	-3503
▁membership	-3504
▁referendum	-3505
▁scientists	-3506
▁vulnerable	-3507
▁commitments	-3508
▁destruction	-3509
▁generations	-3510
▁independent	-3511
4.	-3512
EL	-3513
gn	-3514
ls	-3515
app	-3516
cks	-3517
ira	-3518
isc	-3519
nty	-3520
osn	-3521
sec	-3522
uct	-3523
▁16	-3524
▁50	-3525
▁ut	-3526
back	-3527
hern	-3528
inet	-3529
ynes	-3530
▁193	-3531
▁Can	-3532
▁Eng	-3533
▁Man	-3534
▁Sud	-3535
▁Why	-3536
▁beg	-3537
▁enh	-3538
▁nor	-3539
▁psy	-3540
arant	-3541
house	-3542
ignty	-3543
rimin	-3544
utive	-3545
▁Prog	-3546
▁Sing	-3547
▁York	-3548
▁acqu	-3549
▁bear	-3550
▁body	-3551
▁city	-3552
▁east	-3553
▁fost	-3554
▁frag	-3555
▁outs	-3556
▁wars	-3557
aching	-3558
atures	-3559
erence	-3560
idency	-3561
itting	-3562
making	-3563
▁March	-3564
▁block	-3565
▁carry	-3566
▁court	-3567
▁faces	-3568
▁frequ	-3569
▁ineff	-3570
▁limit	-3571
▁motiv	-3572
▁oblig	-3573
▁plans	-3574
▁separ	-3575
▁space	-3576
▁spend	-3577
▁talks	-3578
▁vital	-3579
▁Keynes	-3580
▁battle	-3581
▁capita	-3582
▁custom	-3583
▁forced	-3584
▁profit	-3585
▁reveal	-3586
national	-3587
▁borders	-3588
▁choices	-3589
▁context	-3590
▁digital	-3591
▁guarant	-3592
▁mention	-3593
▁profits	-3594
▁radical	-3595
▁reached	-3596
▁schools	-3597
▁various	-3598
▁barriers	-3599
▁credible	-3600
▁generate	-3601
▁hundreds	-3602
▁launched	-3603
▁material	-3604
▁protests	-3605
▁specific	-3606
▁standard	-3607
▁starting	-3608
▁borrowing	-3609
▁employees	-3610
▁generally	-3611
▁inclusion	-3612
▁permanent	-3613
▁prospects	-3614
▁sentiment	-3615
▁structure	-3616
▁therefore	-3617
▁treatment	-3618
▁currencies	-3619
▁difference	-3620
▁diplomatic	-3621
▁operations	-3622
▁structures	-3623
▁potentially	-3624
▁sovereignty	-3625
▁distribution	-3626
▁geopolitical	-3627
▁shareholders	-3628
▁authoritarian	-3629
▁establishment	-3630
▁manufacturing	-3631
▁participation	-3632
▁understanding	-3633
%.	-3634
6,	-3635
EC	-3636
dr	-3637
oz	-3638
car	-3639
cle	-3640
equ	-3641
ops	-3642
upp	-3643
utr	-3644
▁Ph	-3645
▁vo	-3646
icro	-3647
kept	-3648
ries	-3649
uary	-3650
uous	-3651
uses	-3652
whel	-3653
▁Nob	-3654
▁Tal	-3655
▁hor	-3656
▁mer	-3657
acter	-3658
▁Gaza	-3659
▁capt	-3660
▁core	-3661
▁fate	-3662
▁flaw	-3663
▁goes	-3664
▁list	-3665
▁mand	-3666
▁name	-3667
▁valu	-3668
▁wake	-3669
coming	-3670
onents	-3671
rative	-3672
reneur	-3673
▁2008,	-3674
▁adapt	-3675
▁adopt	-3676
▁alloc	-3677
▁cheap	-3678
▁fears	-3679
▁imbal	-3680
▁langu	-3681
▁light	-3682
▁obser	-3683
▁renew	-3684
▁seven	-3685
▁trial	-3686
▁visit	-3687
▁volat	-3688
orthern	-3689
ructive	-3690
▁Brexit	-3691
▁Health	-3692
▁Jewish	-3693
▁anyone	-3694
▁belief	-3695
▁chance	-3696
▁closer	-3697
▁comput	-3698
▁crimin	-3699
▁easier	-3700
▁emphas	-3701
▁instru	-3702
▁issued	-3703
▁limits	-3704
▁mainly	-3705
▁medium	-3706
▁prefer	-3707
▁resist	-3708
▁suffer	-3709
▁unless	-3710
▁Iranian	-3711
▁amounts	-3712
▁appropr	-3713
▁broader	-3714
▁command	-3715
▁federal	-3716
▁imposed	-3717
▁include	-3718
▁managed	-3719
▁options	-3720
▁promise	-3721
▁refugee	-3722
▁running	-3723
▁seeking	-3724
▁trading	-3725
▁usually	-3726
repreneur	-3727
▁Although	-3728
▁declared	-3729
▁directly	-3730
▁function	-3731
▁greatest	-3732
▁identity	-3733
▁ordinary	-3734
▁possibly	-3735
▁property	-3736
ustainable	-3737
▁exception	-3738
▁reflected	-3739
▁University	-3740
▁everything	-3741
▁immediately	-3742
▁immigration	-3743
▁perspective	-3744
▁uncertainty	-3745
▁intellectual	-3746
▁macroeconomic	-3747
Ch	-3748
DR	-3749
IV	-3750
uk	-3751
BRI	-3752
TON	-3753
auc	-3754
mat	-3755
pay	-3756
ray	-3757
▁11	-3758
▁13	-3759
▁2%	-3760
▁Am	-3761
▁Te	-3762
▁il	-3763
aves	-3764
iant	-3765
ihad	-3766
iled	-3767
lace	-3768
mark	-3769
rect	-3770
resp	-3771
rest	-3772
uild	-3773
▁BER	-3774
▁Ber	-3775
▁Cal	-3776
▁adm	-3777
▁bul	-3778
▁gap	-3779
▁log	-3780
▁rig	-3781
ailed	-3782
anish	-3783
arity	-3784
gency	-3785
idesp	-3786
ilies	-3787
ollah	-3788
rence	-3789
state	-3790
tered	-3791
▁2010	-3792
▁Bosn	-3793
▁Cour	-3794
▁Krem	-3795
▁arms	-3796
▁army	-3797
▁cell	-3798
▁draw	-3799
▁drop	-3800
▁fire	-3801
▁fulf	-3802
▁here	-3803
▁isol	-3804
▁pled	-3805
▁rare	-3806
▁says	-3807
▁task	-3808
▁tele	-3809
▁wast	-3810
▁writ	-3811
ective	-3812
rehens	-3813
▁Libya	-3814
▁Polit	-3815
▁Treas	-3816
▁blame	-3817
▁paper	-3818
▁parad	-3819
▁poore	-3820
▁range	-3821
▁risky	-3822
▁shows	-3823
▁worry	-3824
▁Chance	-3825
▁During	-3826
▁actors	-3827
▁deeply	-3828
▁mostly	-3829
▁parent	-3830
▁raised	-3831
▁rating	-3832
▁remark	-3833
▁secure	-3834
▁spirit	-3835
▁trends	-3836
▁unable	-3837
▁widesp	-3838
▁Kremlin	-3839
▁Turkish	-3840
▁absence	-3841
▁actions	-3842
▁arrange	-3843
▁concept	-3844
▁contain	-3845
▁depends	-3846
▁earlier	-3847
▁helping	-3848
▁imagine	-3849
▁journal	-3850
▁purpose	-3851
▁raising	-3852
▁receive	-3853
▁smaller	-3854
▁started	-3855
▁analysis	-3856
▁anything	-3857
▁combined	-3858
▁ensuring	-3859
▁families	-3860
▁fighting	-3861
▁religion	-3862
▁remained	-3863
▁rhetoric	-3864
▁scenario	-3865
▁strength	-3866
▁surprise	-3867
▁training	-3868
▁Argentina	-3869
▁Australia	-3870
▁character	-3871
▁concluded	-3872
▁diplomacy	-3873
▁electoral	-3874
▁emergence	-3875
▁expensive	-3876
▁positions	-3877
▁published	-3878
▁universal	-3879
▁conference	-3880
▁continuing	-3881
▁everywhere	-3882
▁historical	-3883
▁scientific	-3884
▁widespread	-3885
▁Governments	-3886
▁democracies	-3887
▁legislation	-3888
▁substantial	-3889
▁entrepreneur	-3890
▁quantitative	-3891
7.	-3892
ze	-3893
-19	-3894
DGE	-3895
aks	-3896
cer	-3897
doğ	-3898
irm	-3899
let	-3900
mar	-3901
oke	-3902
ott	-3903
ria	-3904
yle	-3905
▁Bo	-3906
▁CO	-3907
▁Ju	-3908
▁gl	-3909
MBRI	-3910
ague	-3911
anda	-3912
emen	-3913
ethe	-3914
fuel	-3915
iced	-3916
ieth	-3917
irth	-3918
llor	-3919
ogue	-3920
oted	-3921
rown	-3922
time	-3923
uine	-3924
uman	-3925
urch	-3926
vest	-3927
▁196	-3928
▁40%	-3929
▁Mal	-3930
▁Spr	-3931
▁lib	-3932
▁mid	-3933
▁sac	-3934
▁sat	-3935
▁sou	-3936
acerb	-3937
asing	-3938
class	-3939
doğan	-3940
legal	-3941
thern	-3942
▁Both	-3943
▁Over	-3944
▁Thus	-3945
▁Will	-3946
▁base	-3947
▁bold	-3948
▁fell	-3949
▁gone	-3950
▁obst	-3951
▁prem	-3952
▁rely	-3953
▁susp	-3954
▁team	-3955
▁ties	-3956
▁your	-3957
ceived	-3958
ifying	-3959
lihood	-3960
ployed	-3961
▁Assad	-3962
▁Every	-3963
▁Organ	-3964
▁aware	-3965
▁depos	-3966
▁drugs	-3967
▁enjoy	-3968
▁heavy	-3969
▁jihad	-3970
▁leads	-3971
▁meant	-3972
▁prime	-3973
▁prove	-3974
▁psych	-3975
▁stead	-3976
MBRIDGE	-3977
actions	-3978
igation	-3979
▁Colomb	-3980
▁Econom	-3981
▁center	-3982
▁commer	-3983
▁double	-3984
▁elites	-3985
▁fossil	-3986
▁impose	-3987
▁insist	-3988
▁judges	-3989
▁margin	-3990
▁offers	-3991
▁police	-3992
▁preced	-3993
▁settle	-3994
▁summer	-3995
etheless	-3996
▁Climate	-3997
▁Erdoğan	-3998
▁January	-3999
▁biggest	-4000
▁changed	-4001
▁confron	-4002
▁divided	-4003
▁eastern	-4004
▁enforce	-4005
▁exacerb	-4006
▁measure	-4007
▁playing	-4008
rehensive	-4009
▁activity	-4010
▁changing	-4011
▁involved	-4012
▁leverage	-4013
▁overwhel	-4014
▁practice	-4015
▁prepared	-4016
▁promises	-4017
▁targeted	-4018
▁valuable	-4019
▁weakness	-4020
▁CAMBRIDGE	-4021
▁bilateral	-4022
▁described	-4023
▁efficient	-4024
▁inclusive	-4025
▁operating	-4026
▁primarily	-4027
▁twentieth	-4028
▁Chancellor	-4029
▁Revolution	-4030
▁constraint	-4031
▁determined	-4032
▁greenhouse	-4033
▁mechanisms	-4034
▁presidency	-4035
▁previously	-4036
▁principles	-4037
▁recognized	-4038
▁regulators	-4039
▁resistance	-4040
▁combination	-4041
▁experienced	-4042
▁implemented	-4043
.5	-4044
ij	-4045
ada	-4046
aed	-4047
amb	-4048
che	-4049
com	-4050
eff	-4051
gia	-4052
ias	-4053
pet	-4054
see	-4055
vis	-4056
▁$2	-4057
aeda	-4058
ager	-4059
ateg	-4060
debt	-4061
fers	-4062
iban	-4063
inct	-4064
inks	-4065
nder	-4066
ster	-4067
umst	-4068
ustr	-4069
▁Ire	-4070
▁Ken	-4071
▁Kim	-4072
▁Nig	-4073
▁Sea	-4074
▁ban	-4075
▁bod	-4076
▁due	-4077
▁mur	-4078
▁ple	-4079
▁quo	-4080
▁tim	-4081
▁wel	-4082
ching	-4083
eenth	-4084
ental	-4085
heast	-4086
ittee	-4087
itude	-4088
ordin	-4089
ronic	-4090
ugust	-4091
▁1990	-4092
▁Bang	-4093
▁Then	-4094
▁Viet	-4095
▁arch	-4096
▁bill	-4097
▁chem	-4098
▁diss	-4099
▁foot	-4100
▁gold	-4101
▁mort	-4102
▁phen	-4103
▁qual	-4104
▁resc	-4105
▁shif	-4106
▁trig	-4107
▁went	-4108
Americ	-4109
driven	-4110
icking	-4111
ieving	-4112
itious	-4113
lusion	-4114
rights	-4115
ulated	-4116
ultane	-4117
▁Camer	-4118
▁Court	-4119
▁accum	-4120
▁birth	-4121
▁built	-4122
▁categ	-4123
▁chief	-4124
▁delay	-4125
▁eight	-4126
▁elite	-4127
▁enact	-4128
▁final	-4129
▁flood	-4130
▁manip	-4131
▁persu	-4132
▁spent	-4133
▁truly	-4134
▁views	-4135
account	-4136
product	-4137
▁compar	-4138
▁conver	-4139
▁engage	-4140
▁explan	-4141
▁extend	-4142
▁giving	-4143
▁moving	-4144
▁option	-4145
▁revers	-4146
▁secret	-4147
▁shocks	-4148
▁temper	-4149
▁Germans	-4150
▁However	-4151
▁Indones	-4152
▁Ireland	-4153
▁Nuclear	-4154
▁Spanish	-4155
▁Taliban	-4156
▁Vietnam	-4157
▁acceler	-4158
▁causing	-4159
▁embrace	-4160
▁genuine	-4161
▁happens	-4162
▁himself	-4163
▁implies	-4164
▁justice	-4165
▁lending	-4166
▁medical	-4167
▁nations	-4168
▁neither	-4169
▁related	-4170
▁secular	-4171
▁Consider	-4172
▁addition	-4173
▁bankrupt	-4174
▁circumst	-4175
▁controls	-4176
▁dramatic	-4177
▁included	-4178
▁occurred	-4179
▁provides	-4180
▁southern	-4181
▁whatever	-4182
▁ambitious	-4183
▁centuries	-4184
▁committed	-4185
▁condition	-4186
▁conflicts	-4187
▁contracts	-4188
▁generated	-4189
▁gradually	-4190
▁observers	-4191
▁otherwise	-4192
▁sustained	-4193
▁technical	-4194
▁transfers	-4195
▁repeatedly	-4196
▁enterprises	-4197
▁essentially	-4198
▁transparent	-4199
▁Organization	-4200
▁demonstrated	-4201
▁establishing	-4202
▁contributions	-4203
%,	-4204
4%	-4205
AD	-4206
II	-4207
ev	-4208
def	-4209
elt	-4210
hab	-4211
hic	-4212
ife	-4213
iny	-4214
isf	-4215
ley	-4216
ncy	-4217
ocu	-4218
oes	-4219
orb	-4220
oud	-4221
ozy	-4222
udd	-4223
ugh	-4224
urb	-4225
▁10	-4226
▁li	-4227
▁wa	-4228
-200	-4229
amin	-4230
atal	-4231
cale	-4232
edly	-4233
lymp	-4234
ours	-4235
pril	-4236
rack	-4237
rous	-4238
what	-4239
▁194	-4240
▁Any	-4241
▁Bel	-4242
▁Def	-4243
▁Jer	-4244
▁Whe	-4245
▁dro	-4246
▁fem	-4247
▁lay	-4248
▁saw	-4249
▁tro	-4250
antly	-4251
apore	-4252
arely	-4253
iders	-4254
inite	-4255
orial	-4256
orted	-4257
owned	-4258
redit	-4259
scale	-4260
▁2003	-4261
▁2011	-4262
▁Char	-4263
▁Paul	-4264
▁Sark	-4265
▁bure	-4266
▁dism	-4267
▁enem	-4268
▁exit	-4269
▁fill	-4270
▁lies	-4271
▁rail	-4272
▁sell	-4273
▁upon	-4274
▁vers	-4275
arency	-4276
istics	-4277
ricity	-4278
vision	-4279
▁April	-4280
▁David	-4281
▁Olymp	-4282
▁Their	-4283
▁Trans	-4284
▁aspir	-4285
▁begun	-4286
▁chose	-4287
▁decis	-4288
▁exerc	-4289
▁imply	-4290
▁knows	-4291
▁minds	-4292
▁ratio	-4293
▁remov	-4294
▁round	-4295
▁solve	-4296
▁tempt	-4297
▁track	-4298
▁uncon	-4299
▁wider	-4300
artment	-4301
iations	-4302
itation	-4303
lection	-4304
perform	-4305
related	-4306
▁August	-4307
▁Korean	-4308
▁Rather	-4309
▁accord	-4310
▁contem	-4311
▁conven	-4312
▁defend	-4313
▁desire	-4314
▁destro	-4315
▁except	-4316
▁gained	-4317
▁integr	-4318
▁multip	-4319
▁murder	-4320
▁plants	-4321
▁sexual	-4322
▁theory	-4323
atically	-4324
ographic	-4325
ventions	-4326
▁Cameron	-4327
▁Program	-4328
▁Sarkozy	-4329
▁Without	-4330
▁benefic	-4331
▁calling	-4332
▁decided	-4333
▁driving	-4334
▁friends	-4335
▁getting	-4336
▁granted	-4337
▁holding	-4338
▁illegal	-4339
▁imports	-4340
▁offered	-4341
▁opposed	-4342
▁someone	-4343
▁studies	-4344
▁violent	-4345
▁whereas	-4346
ashington	-4347
emocratic	-4348
▁Egyptian	-4349
▁agencies	-4350
▁annually	-4351
▁collabor	-4352
▁declined	-4353
▁designed	-4354
▁disaster	-4355
▁improved	-4356
▁includes	-4357
▁phenomen	-4358
▁restrict	-4359
▁soldiers	-4360
▁suffered	-4361
▁systemic	-4362
▁Indonesia	-4363
▁abandoned	-4364
▁direction	-4365
▁expanding	-4366
▁practical	-4367
▁processes	-4368
▁proposals	-4369
▁simultane	-4370
▁supported	-4371
▁accounting	-4372
▁associated	-4373
▁capitalism	-4374
▁engagement	-4375
▁inevitable	-4376
▁objectives	-4377
▁profession	-4378
▁sufficient	-4379
▁Fortunately	-4380
▁Republicans	-4381
▁differences	-4382
▁populations	-4383
▁constitution	-4384
▁multilateral	-4385
▁circumstances	-4386
▁revolutionary	-4387
▁substantially	-4388
▁implementation	-4389
#1	-4390
.)	-4391
5.	-4392
7,	-4393
8%	-4394
CC	-4395
rs	-4396
.5%	-4397
ING	-4398
LIN	-4399
ami	-4400
enh	-4401
gas	-4402
ino	-4403
occ	-4404
ulf	-4405
uty	-4406
yal	-4407
▁Ad	-4408
▁Bl	-4409
▁Co	-4410
▁ey	-4411
#160	-4412
aded	-4413
aily	-4414
born	-4415
cast	-4416
hest	-4417
irls	-4418
mbly	-4419
onom	-4420
vard	-4421
▁Ara	-4422
▁Bec	-4423
▁Car	-4424
▁Oct	-4425
▁Our	-4426
▁art	-4427
▁cha	-4428
▁got	-4429
▁pul	-4430
▁ric	-4431
▁unw	-4432
adesh	-4433
ading	-4434
alian	-4435
endit	-4436
inion	-4437
ommod	-4438
point	-4439
uting	-4440
▁Ange	-4441
▁Here	-4442
▁July	-4443
▁Shia	-4444
▁ball	-4445
▁calc	-4446
▁cast	-4447
▁dial	-4448
▁ethn	-4449
▁fert	-4450
▁gave	-4451
▁insp	-4452
▁meth	-4453
▁pret	-4454
▁prev	-4455
▁room	-4456
▁sacr	-4457
▁shap	-4458
▁trou	-4459
▁turm	-4460
▁vill	-4461
▁wish	-4462
▁wond	-4463
istrib	-4464
ladesh	-4465
rained	-4466
usalem	-4467
▁2008.	-4468
▁Chile	-4469
▁Medic	-4470
▁Nobel	-4471
▁Qaeda	-4472
▁Yemen	-4473
▁advoc	-4474
▁armed	-4475
▁blood	-4476
▁chain	-4477
▁frust	-4478
▁gives	-4479
▁looks	-4480
▁minim	-4481
▁mobil	-4482
▁multi	-4483
▁nomin	-4484
▁schem	-4485
▁scope	-4486
▁spect	-4487
▁vehic	-4488
▁waste	-4489
▁youth	-4490
aration	-4491
archers	-4492
ishment	-4493
ivalent	-4494
reement	-4495
through	-4496
ustrial	-4497
▁Church	-4498
▁Instit	-4499
▁Spring	-4500
▁bubble	-4501
▁deeper	-4502
▁exceed	-4503
▁fallen	-4504
▁inject	-4505
▁lesson	-4506
▁obstac	-4507
▁robust	-4508
▁skills	-4509
▁stress	-4510
▁strike	-4511
▁twenty	-4512
▁unique	-4513
▁viewed	-4514
rational	-4515
▁Because	-4516
▁Kurdish	-4517
▁October	-4518
▁bailout	-4519
▁compens	-4520
▁compete	-4521
▁complic	-4522
▁dispute	-4523
▁farmers	-4524
▁fulfill	-4525
▁leaving	-4526
▁lessons	-4527
▁ongoing	-4528
▁players	-4529
▁turmoil	-4530
▁victims	-4531
ibilities	-4532
▁accommod	-4533
▁appeared	-4534
▁historic	-4535
▁physical	-4536
▁profound	-4537
▁returned	-4538
▁survival	-4539
▁Communist	-4540
▁Democrats	-4541
▁Financial	-4542
▁Jerusalem	-4543
▁civilians	-4544
▁collapsed	-4545
▁dependent	-4546
▁extremely	-4547
▁perceived	-4548
▁sometimes	-4549
▁statement	-4550
▁Bangladesh	-4551
▁Department	-4552
▁Washington	-4553
▁candidates	-4554
▁commercial	-4555
▁compromise	-4556
▁discussion	-4557
▁imbalances	-4558
▁legitimate	-4559
▁priorities	-4560
▁settlement	-4561
▁supporters	-4562
▁threatened	-4563
▁underlying	-4564
▁volatility	-4565
▁contributed	-4566
▁electricity	-4567
▁encouraging	-4568
▁initiatives	-4569
▁nationalism	-4570
▁agricultural	-4571
▁conservative	-4572
▁economically	-4573
▁organization	-4574
▁entrepreneurs	-4575
▁constitutional	-4576
8,	-4577
Is	-4578
NA	-4579
NC	-4580
Os	-4581
SI	-4582
TA	-4583
sk	-4584
zb	-4585
▁"	-4586
era	-4587
gic	-4588
iff	-4589
imb	-4590
lad	-4591
mon	-4592
ode	-4593
rud	-4594
soc	-4595
uit	-4596
yan	-4597
▁23	-4598
▁5%	-4599
▁Cy	-4600
▁Im	-4601
▁Ma	-4602
▁Me	-4603
▁eg	-4604
Euro	-4605
ails	-4606
ames	-4607
arak	-4608
bles	-4609
book	-4610
dden	-4611
enty	-4612
fort	-4613
free	-4614
iagn	-4615
ikes	-4616
lows	-4617
more	-4618
ntil	-4619
oles	-4620
ores	-4621
pret	-4622
rees	-4623
ruit	-4624
▁10%	-4625
▁Bro	-4626
▁Ear	-4627
▁HIV	-4628
▁Sum	-4629
▁asy	-4630
▁bit	-4631
▁mor	-4632
▁odd	-4633
▁pen	-4634
▁sal	-4635
▁sem	-4636
▁shr	-4637
adays	-4638
anied	-4639
aught	-4640
count	-4641
eping	-4642
icing	-4643
onent	-4644
▁2006	-4645
▁Balk	-4646
▁Bern	-4647
▁alle	-4648
▁defe	-4649
▁halt	-4650
▁quot	-4651
▁sens	-4652
▁stay	-4653
▁symb	-4654
▁tour	-4655
▁trip	-4656
▁type	-4657
▁wage	-4658
▁wave	-4659
▁wind	-4660
Europe	-4661
abling	-4662
cation	-4663
govern	-4664
growth	-4665
iction	-4666
inding	-4667
overed	-4668
regate	-4669
rowing	-4670
stream	-4671
▁Sudan	-4672
▁Under	-4673
▁Until	-4674
▁cells	-4675
▁clean	-4676
▁enorm	-4677
▁exact	-4678
▁heads	-4679
▁hours	-4680
▁indef	-4681
▁insol	-4682
▁mortg	-4683
▁norms	-4684
▁phase	-4685
▁skept	-4686
▁south	-4687
respons	-4688
▁Angela	-4689
▁BERLIN	-4690
▁Beyond	-4691
▁Bosnia	-4692
▁assume	-4693
▁barely	-4694
▁catast	-4695
▁condem	-4696
▁degree	-4697
▁emerge	-4698
▁ending	-4699
▁fueled	-4700
▁images	-4701
▁latter	-4702
▁legisl	-4703
▁libert	-4704
▁looked	-4705
▁manner	-4706
▁mobile	-4707
▁mutual	-4708
▁paying	-4709
▁perpet	-4710
▁places	-4711
▁prison	-4712
▁prohib	-4713
▁promin	-4714
▁proven	-4715
▁served	-4716
▁signed	-4717
▁slowly	-4718
▁volunt	-4719
▁worked	-4720
security	-4721
utrition	-4722
veraging	-4723
▁Harvard	-4724
▁Italian	-4725
▁Nigeria	-4726
▁Pacific	-4727
▁bureauc	-4728
▁consist	-4729
▁default	-4730
▁disprop	-4731
▁experts	-4732
▁implied	-4733
▁parents	-4734
▁prolong	-4735
▁regimes	-4736
▁replace	-4737
▁sharply	-4738
▁warning	-4739
ineteenth	-4740
▁Colombia	-4741
▁affected	-4742
▁alliance	-4743
▁bringing	-4744
▁coverage	-4745
▁criminal	-4746
▁demonstr	-4747
▁expendit	-4748
▁globally	-4749
▁language	-4750
▁moderate	-4751
▁neighbor	-4752
▁peaceful	-4753
▁proposal	-4754
▁reaction	-4755
▁remember	-4756
▁resource	-4757
▁starters	-4758
▁transfer	-4759
▁Singapore	-4760
▁aggregate	-4761
▁dictators	-4762
▁economist	-4763
▁opponents	-4764
▁pressures	-4765
▁producing	-4766
▁seriously	-4767
▁territory	-4768
▁transport	-4769
▁adjustment	-4770
▁aggressive	-4771
▁assessment	-4772
▁bankruptcy	-4773
▁equivalent	-4774
▁innovative	-4775
▁presidents	-4776
▁represents	-4777
▁securities	-4778
▁strategies	-4779
▁withdrawal	-4780
▁accompanied	-4781
▁achievement	-4782
▁acknowledge	-4783
▁agriculture	-4784
▁aspirations	-4785
▁flexibility	-4786
▁researchers	-4787
▁corporations	-4788
▁developments	-4789
▁partnerships	-4790
▁requirements	-4791
▁transactions	-4792
▁transparency	-4793
▁consolidation	-4794
▁disproportion	-4795
▁strengthening	-4796
▁simultaneously	-4797
..	-4798
.9	-4799
2%	-4800
DS	-4801
NP	-4802
PP	-4803
SE	-4804
br	-4805
eb	-4806
gu	-4807
ahu	-4808
bre	-4809
eal	-4810
ery	-4811
imp	-4812
mit	-4813
olf	-4814
pin	-4815
ula	-4816
unk	-4817
▁DC	-4818
▁Em	-4819
▁Ha	-4820
▁di	-4821
ahar	-4822
alse	-4823
aria	-4824
bank	-4825
cean	-4826
cons	-4827
fect	-4828
indu	-4829
oget	-4830
rors	-4831
▁202	-4832
▁25%	-4833
▁Mac	-4834
▁Mar	-4835
▁Mod	-4836
▁Reg	-4837
▁Sch	-4838
▁Sil	-4839
▁Sup	-4840
▁Yes	-4841
▁dri	-4842
▁hot	-4843
▁nav	-4844
▁tow	-4845
▁ver	-4846
▁via	-4847
#160;	-4848
addam	-4849
being	-4850
ecess	-4851
erted	-4852
first	-4853
iable	-4854
ipped	-4855
irect	-4856
ivate	-4857
known	-4858
orous	-4859
orpor	-4860
ticle	-4861
which	-4862
▁Anot	-4863
▁Burm	-4864
▁Cath	-4865
▁Hezb	-4866
▁Kong	-4867
▁Swed	-4868
▁Wall	-4869
▁date	-4870
▁docu	-4871
▁iron	-4872
▁irre	-4873
▁knew	-4874
▁lear	-4875
▁peak	-4876
▁rose	-4877
▁sole	-4878
▁stra	-4879
▁told	-4880
▁walk	-4881
▁wild	-4882
▁zone	-4883
ailing	-4884
aining	-4885
anging	-4886
anyahu	-4887
clical	-4888
contro	-4889
herent	-4890
luding	-4891
orient	-4892
payers	-4893
urally	-4894
▁2001,	-4895
▁Human	-4896
▁Iraqi	-4897
▁Never	-4898
▁Third	-4899
▁autoc	-4900
▁board	-4901
▁chaos	-4902
▁colon	-4903
▁compe	-4904
▁crime	-4905
▁delib	-4906
▁disag	-4907
▁fails	-4908
▁holds	-4909
▁honor	-4910
▁hopes	-4911
▁joint	-4912
▁links	-4913
▁monit	-4914
▁monop	-4915
▁moves	-4916
▁night	-4917
▁quite	-4918
▁signs	-4919
▁solid	-4920
▁surge	-4921
▁unity	-4922
▁votes	-4923
▁weeks	-4924
isingly	-4925
ogether	-4926
ospital	-4927
▁Agency	-4928
▁Poland	-4929
▁Senate	-4930
▁Street	-4931
▁absorb	-4932
▁acting	-4933
▁aspect	-4934
▁crimes	-4935
▁desper	-4936
▁destin	-4937
▁escape	-4938
▁ethnic	-4939
▁exclus	-4940
▁faster	-4941
▁gender	-4942
▁hardly	-4943
▁humans	-4944
▁method	-4945
▁offset	-4946
▁online	-4947
▁placed	-4948
▁played	-4949
▁recomm	-4950
▁relief	-4951
▁remind	-4952
▁review	-4953
▁ruling	-4954
▁saying	-4955
▁search	-4956
▁sudden	-4957
▁undert	-4958
▁weaker	-4959
▁Another	-4960
▁Further	-4961
▁advance	-4962
▁affairs	-4963
▁appoint	-4964
▁budgets	-4965
▁claimed	-4966
▁comment	-4967
▁critics	-4968
▁deserve	-4969
▁discipl	-4970
▁dynamic	-4971
▁equally	-4972
▁express	-4973
▁figures	-4974
▁finding	-4975
▁initial	-4976
▁learned	-4977
▁notably	-4978
▁opinion	-4979
▁paradox	-4980
▁periods	-4981
▁proceed	-4982
▁reports	-4983
▁setting	-4984
▁showing	-4985
▁sources	-4986
▁suspect	-4987
▁Islamist	-4988
▁arguably	-4989
▁deterior	-4990
▁equality	-4991
▁failures	-4992
▁humanity	-4993
▁interven	-4994
▁learning	-4995
▁meetings	-4996
▁minority	-4997
▁planning	-4998
▁promised	-4999
▁purchase	-5000
▁rejected	-5001
▁relevant	-5002
▁somewhat	-5003
▁struggle	-5004
▁Hezbollah	-5005
▁Netanyahu	-5006
▁addressed	-5007
▁declining	-5008
▁explained	-5009
▁movements	-5010
▁predecess	-5011
▁promoting	-5012
▁redistrib	-5013
▁responded	-5014
▁stimulate	-5015
▁taxpayers	-5016
responsible	-5017
▁Government	-5018
▁apparently	-5019
▁dependence	-5020
▁encouraged	-5021
▁nineteenth	-5022
▁reflecting	-5023
▁regardless	-5024
▁supporting	-5025
▁surprising	-5026
▁terrorists	-5027
▁understood	-5028
▁Nonetheless	-5029
▁commodities	-5030
▁constraints	-5031
▁innovations	-5032
▁instruments	-5033
▁maintaining	-5034
▁obligations	-5035
▁experiencing	-5036
▁universities	-5037
▁comprehensive	-5038
▁fundamentally	-5039
▁interventions	-5040
2,	-5041
IA	-5042
ma	-5043
ux	-5044
ana	-5045
fin	-5046
icy	-5047
inf	-5048
oly	-5049
ote	-5050
pot	-5051
rog	-5052
wan	-5053
▁14	-5054
▁El	-5055
▁Ky	-5056
▁Lo	-5057
▁QE	-5058
▁Ro	-5059
▁ec	-5060
-201	-5061
amed	-5062
ares	-5063
cers	-5064
enez	-5065
fall	-5066
fare	-5067
imir	-5068
ingu	-5069
mosp	-5070
oked	-5071
oods	-5072
prus	-5073
pted	-5074
reme	-5075
rowd	-5076
sels	-5077
sing	-5078
ties	-5079
unis	-5080
view	-5081
▁195	-5082
▁30%	-5083
▁Add	-5084
▁Mub	-5085
▁Rom	-5086
▁sto	-5087
▁vac	-5088
adequ	-5089
agers	-5090
agger	-5091
eters	-5092
gered	-5093
icism	-5094
igned	-5095
iling	-5096
ilipp	-5097
iring	-5098
itect	-5099
lines	-5100
ordan	-5101
party	-5102
rency	-5103
trade	-5104
uthor	-5105
ystem	-5106
▁1980	-5107
▁2014	-5108
▁Asse	-5109
▁Gulf	-5110
▁Hong	-5111
▁Mich	-5112
▁Prot	-5113
▁Vlad	-5114
▁anim	-5115
▁bomb	-5116
▁brok	-5117
▁burn	-5118
▁cele	-5119
▁died	-5120
▁enth	-5121
▁epid	-5122
▁exam	-5123
▁kept	-5124
▁lock	-5125
▁ones	-5126
▁perv	-5127
▁prox	-5128
▁rout	-5129
▁ship	-5130
▁tact	-5131
▁trap	-5132
▁trib	-5133
▁uses	-5134
apital	-5135
establ	-5136
estine	-5137
igence	-5138
ourage	-5139
ranean	-5140
▁2011,	-5141
▁2013,	-5142
▁2014,	-5143
▁2015,	-5144
▁Again	-5145
▁Alger	-5146
▁Count	-5147
▁Tunis	-5148
▁Venez	-5149
▁adequ	-5150
▁adult	-5151
▁alleg	-5152
▁blind	-5153
▁cohes	-5154
▁cyber	-5155
▁faced	-5156
▁false	-5157
▁fixed	-5158
▁giant	-5159
▁girls	-5160
▁grand	-5161
▁imped	-5162
▁index	-5163
▁lands	-5164
▁liter	-5165
▁north	-5166
▁noted	-5167
▁optim	-5168
▁posed	-5169
▁route	-5170
▁scand	-5171
▁stage	-5172
▁tests	-5173
▁types	-5174
▁white	-5175
▁worst	-5176
largest	-5177
uations	-5178
uilding	-5179
▁Berlin	-5180
▁Cyprus	-5181
▁Growth	-5182
▁Jordan	-5183
▁Market	-5184
▁Saddam	-5185
▁atmosp	-5186
▁attend	-5187
▁barrel	-5188
▁cancer	-5189
▁choose	-5190
▁decide	-5191
▁driver	-5192
▁earned	-5193
▁factor	-5194
▁formal	-5195
▁incomp	-5196
▁joined	-5197
▁legacy	-5198
▁mental	-5199
▁modest	-5200
▁observ	-5201
▁owners	-5202
▁pushed	-5203
▁rulers	-5204
▁satisf	-5205
▁select	-5206
▁sheets	-5207
▁surely	-5208
▁survey	-5209
▁suspic	-5210
▁troops	-5211
▁weaken	-5212
▁yields	-5213
ordinary	-5214
reaching	-5215
standing	-5216
▁Georgia	-5217
▁Mediter	-5218
▁Mubarak	-5219
▁Supreme	-5220
▁autonom	-5221
▁careful	-5222
▁carried	-5223
▁channel	-5224
▁defined	-5225
▁disrupt	-5226
▁elector	-5227
▁genetic	-5228
▁gradual	-5229
▁healthy	-5230
▁heavily	-5231
▁highest	-5232
▁inadequ	-5233
▁machine	-5234
▁mandate	-5235
▁missile	-5236
▁mission	-5237
▁mistake	-5238
▁numbers	-5239
▁partner	-5240
▁payment	-5241
▁pointed	-5242
▁putting	-5243
▁realize	-5244
▁reserve	-5245
▁returns	-5246
▁slowing	-5247
▁survive	-5248
▁towards	-5249
▁turning	-5250
▁welcome	-5251
ciliation	-5252
▁Assembly	-5253
▁Atlantic	-5254
▁Governor	-5255
▁Venezuel	-5256
▁Vladimir	-5257
▁attempts	-5258
▁chemical	-5259
▁creative	-5260
▁decisive	-5261
▁dialogue	-5262
▁disorder	-5263
▁dominant	-5264
▁enabling	-5265
▁exercise	-5266
▁flexible	-5267
▁forecast	-5268
▁invasion	-5269
▁northern	-5270
▁presence	-5271
▁priority	-5272
▁reaching	-5273
▁regarded	-5274
▁replaced	-5275
▁reported	-5276
▁restruct	-5277
▁surround	-5278
▁underway	-5279
▁weakened	-5280
▁Committee	-5281
▁achieving	-5282
▁acknowled	-5283
▁conducted	-5284
▁criticism	-5285
▁customers	-5286
▁deepening	-5287
▁estimates	-5288
▁evolution	-5289
▁interpret	-5290
▁objective	-5291
▁organized	-5292
▁pollution	-5293
▁practices	-5294
▁promising	-5295
▁tradition	-5296
▁typically	-5297
▁undermine	-5298
▁weakening	-5299
▁Parliament	-5300
▁acceptable	-5301
▁attractive	-5302
▁commission	-5303
▁controvers	-5304
▁disastrous	-5305
▁experiment	-5306
▁extremists	-5307
▁imperative	-5308
▁indefinite	-5309
▁inevitably	-5310
▁interested	-5311
▁reasonable	-5312
▁tightening	-5313
▁university	-5314
▁Furthermore	-5315
▁counterpart	-5316
▁engineering	-5317
▁explanation	-5318
▁journalists	-5319
▁participate	-5320
▁recognition	-5321
▁represented	-5322
▁appreciation	-5323
▁arrangements	-5324
▁concentrated	-5325
▁contemporary	-5326
▁conventional	-5327
▁Mediterranean	-5328
▁sustainability	-5329
!”	-5330
6%	-5331
BO	-5332
Cs	-5333
IC	-5334
We	-5335
ha	-5336
hi	-5337
zz	-5338
▁,	-5339
▁.	-5340
ael	-5341
amm	-5342
asc	-5343
bit	-5344
fol	-5345
kin	-5346
lum	-5347
rue	-5348
ugg	-5349
ume	-5350
▁25	-5351
▁3%	-5352
▁Cr	-5353
▁Tw	-5354
agog	-5355
alog	-5356
ancy	-5357
angh	-5358
band	-5359
ches	-5360
comp	-5361
lain	-5362
odes	-5363
olar	-5364
omed	-5365
oubt	-5366
rant	-5367
size	-5368
ugal	-5369
▁192	-5370
▁50%	-5371
▁Air	-5372
▁Are	-5373
▁Bol	-5374
▁Edu	-5375
▁Hen	-5376
▁Let	-5377
▁Rec	-5378
▁SDR	-5379
▁She	-5380
▁Tai	-5381
▁Tax	-5382
▁Who	-5383
▁alt	-5384
▁amp	-5385
▁bol	-5386
▁emp	-5387
▁lab	-5388
▁lag	-5389
▁lie	-5390
▁lob	-5391
▁mit	-5392
▁sun	-5393
▁thr	-5394
▁vit	-5395
▁wid	-5396
▁yen	-5397
▁yes	-5398
aling	-5399
asive	-5400
atell	-5401
erman	-5402
gment	-5403
igate	-5404
ilemm	-5405
ipher	-5406
licit	-5407
oning	-5408
price	-5409
ranch	-5410
riage	-5411
rible	-5412
risis	-5413
sight	-5414
urely	-5415
utral	-5416
▁2016	-5417
▁Bash	-5418
▁Holl	-5419
▁Jews	-5420
▁None	-5421
▁Port	-5422
▁ally	-5423
▁crop	-5424
▁epis	-5425
▁keen	-5426
▁lend	-5427
▁loan	-5428
▁pict	-5429
▁prag	-5430
▁race	-5431
▁reck	-5432
▁tiny	-5433
▁tool	-5434
▁town	-5435
▁unst	-5436
▁vacc	-5437
▁warn	-5438
anders	-5439
anghai	-5440
backed	-5441
border	-5442
iaries	-5443
idents	-5444
igrant	-5445
inking	-5446
mented	-5447
ptions	-5448
reform	-5449
▁2010.	-5450
▁Chair	-5451
▁Earth	-5452
▁Popul	-5453
▁abund	-5454
▁added	-5455
▁advis	-5456
▁books	-5457
▁brain	-5458
▁coast	-5459
▁daily	-5460
▁debts	-5461
▁deriv	-5462
▁diagn	-5463
▁eager	-5464
▁facts	-5465
▁falls	-5466
▁going	-5467
▁homes	-5468
▁inher	-5469
▁lines	-5470
▁lived	-5471
▁loyal	-5472
▁medic	-5473
▁moved	-5474
▁panic	-5475
▁param	-5476
▁polar	-5477
▁repay	-5478
▁shape	-5479
▁smart	-5480
▁toler	-5481
▁tough	-5482
▁traff	-5483
▁voice	-5484
▁works	-5485
cession	-5486
country	-5487
erative	-5488
sharing	-5489
termine	-5490
▁Center	-5491
▁Policy	-5492
▁Taiwan	-5493
▁Ukrain	-5494
▁Unlike	-5495
▁arrest	-5496
▁asylum	-5497
▁combat	-5498
▁costly	-5499
▁couple	-5500
▁driven	-5501
▁enthus	-5502
▁famous	-5503
▁father	-5504
▁female	-5505
▁foster	-5506
▁fought	-5507
▁harder	-5508
▁intens	-5509
▁leaves	-5510
▁losing	-5511
▁mother	-5512
▁outbre	-5513
▁overse	-5514
▁plenty	-5515
▁poorly	-5516
▁ratios	-5517
▁rescue	-5518
▁retire	-5519
▁revive	-5520
▁reward	-5521
▁stance	-5522
▁thanks	-5523
▁wanted	-5524
▁waters	-5525
▁weapon	-5526
American	-5527
European	-5528
▁Balkans	-5529
▁Brother	-5530
▁Holland	-5531
▁Philipp	-5532
▁alleged	-5533
▁anticip	-5534
▁avoided	-5535
▁binding	-5536
▁chronic	-5537
▁closely	-5538
▁correct	-5539
▁corrupt	-5540
▁debates	-5541
▁destroy	-5542
▁empower	-5543
▁enacted	-5544
▁ethical	-5545
▁forever	-5546
▁greatly	-5547
▁nominal	-5548
▁nowhere	-5549
▁painful	-5550
▁release	-5551
▁stories	-5552
▁subsequ	-5553
▁substit	-5554
▁Russians	-5555
▁Shanghai	-5556
▁Treasury	-5557
▁advances	-5558
▁anywhere	-5559
▁balanced	-5560
▁billions	-5561
▁computer	-5562
▁constitu	-5563
▁damaging	-5564
▁discover	-5565
▁disputes	-5566
▁distinct	-5567
▁earnings	-5568
▁engaging	-5569
▁enormous	-5570
▁examples	-5571
▁formally	-5572
▁generous	-5573
▁hospital	-5574
▁imperial	-5575
▁implying	-5576
▁informal	-5577
▁marginal	-5578
▁marriage	-5579
▁mobility	-5580
▁mobilize	-5581
▁nowadays	-5582
▁patients	-5583
▁patterns	-5584
▁payments	-5585
▁peripher	-5586
▁preserve	-5587
▁pressing	-5588
▁promoted	-5589
▁underpin	-5590
▁urgently	-5591
democratic	-5592
▁Agreement	-5593
▁Education	-5594
▁architect	-5595
▁borrowers	-5596
▁connected	-5597
▁determine	-5598
▁dominated	-5599
▁expressed	-5600
▁extremism	-5601
▁integrity	-5602
▁isolation	-5603
▁ministers	-5604
▁narrative	-5605
▁negotiate	-5606
▁ourselves	-5607
▁prolonged	-5608
▁purchases	-5609
▁wellbeing	-5610
▁Conference	-5611
▁allocation	-5612
▁conclusion	-5613
▁controlled	-5614
▁facilitate	-5615
▁introduced	-5616
▁mainstream	-5617
▁reductions	-5618
▁undermined	-5619
▁unemployed	-5620
▁adjustments	-5621
▁appropriate	-5622
▁competitors	-5623
▁educational	-5624
▁improvement	-5625
▁liabilities	-5626
▁negotiating	-5627
▁recognizing	-5628
▁territorial	-5629
▁undermining	-5630
▁willingness	-5631
▁breakthrough	-5632
▁depreciation	-5633
▁successfully	-5634
▁temperatures	-5635
▁irresponsible	-5636
▁liberalization	-5637
▁transformation	-5638
▁unconventional	-5639
▁internationally	-5640
1%	-5641
70	-5642
80	-5643
AS	-5644
CP	-5645
HA	-5646
SS	-5647
go	-5648
ny	-5649
wa	-5650
▁[	-5651
ECD	-5652
IDS	-5653
ONG	-5654
ari	-5655
arr	-5656
cap	-5657
cri	-5658
ctr	-5659
egu	-5660
ica	-5661
ipp	-5662
oto	-5663
rap	-5664
rum	-5665
sen	-5666
sts	-5667
▁$4	-5668
▁($	-5669
▁1,	-5670
▁40	-5671
▁CE	-5672
▁Mc	-5673
▁Mu	-5674
▁NP	-5675
▁Os	-5676
▁Ts	-5677
▁WW	-5678
▁sn	-5679
SEAN	-5680
aked	-5681
arsh	-5682
body	-5683
bond	-5684
ears	-5685
ebru	-5686
even	-5687
ford	-5688
iest	-5689
ires	-5690
ivot	-5691
late	-5692
ocal	-5693
ownt	-5694
prof	-5695
rage	-5696
uris	-5697
utch	-5698
wing	-5699
work	-5700
▁Bef	-5701
▁Ben	-5702
▁Hol	-5703
▁Kos	-5704
▁Lab	-5705
▁Law	-5706
▁Mor	-5707
▁Pan	-5708
▁Pre	-5709
▁Qat	-5710
▁Sad	-5711
▁TPP	-5712
▁Val	-5713
▁anx	-5714
▁cop	-5715
▁die	-5716
▁dog	-5717
▁eld	-5718
▁fil	-5719
▁mic	-5720
▁mix	-5721
▁pet	-5722
abled	-5723
ashed	-5724
earch	-5725
enced	-5726
erous	-5727
ested	-5728
inced	-5729
inger	-5730
irmed	-5731
omics	-5732
oples	-5733
ourse	-5734
quake	-5735
style	-5736
under	-5737
usive	-5738
vency	-5739
▁2004	-5740
▁Bret	-5741
▁Brus	-5742
▁Face	-5743
▁Fore	-5744
▁Four	-5745
▁Free	-5746
▁Hist	-5747
▁Lead	-5748
▁Long	-5749
▁OECD	-5750
▁Serb	-5751
▁Sout	-5752
▁aver	-5753
▁bott	-5754
▁clin	-5755
▁dark	-5756
▁fine	-5757
▁harb	-5758
▁magn	-5759
▁none	-5760
▁nurt	-5761
▁pace	-5762
▁phil	-5763
▁pool	-5764
▁rent	-5765
▁sequ	-5766
▁spok	-5767
▁spur	-5768
▁tack	-5769
▁tens	-5770
▁vary	-5771
▁veto	-5772
&#160;	-5773
Israel	-5774
atform	-5775
carbon	-5776
chmark	-5777
ground	-5778
health	-5779
iating	-5780
iences	-5781
iments	-5782
lights	-5783
orting	-5784
thirds	-5785
utives	-5786
▁1980’	-5787
▁Arabs	-5788
▁Board	-5789
▁Burma	-5790
▁Dutch	-5791
▁Febru	-5792
▁Forum	-5793
▁Franc	-5794
▁Hence	-5795
▁Inter	-5796
▁Moral	-5797
▁Peace	-5798
▁Roman	-5799
▁Still	-5800
▁Woods	-5801
▁alter	-5802
▁apply	-5803
▁badly	-5804
▁belie	-5805
▁black	-5806
▁crack	-5807
▁craft	-5808
▁crowd	-5809
▁deals	-5810
▁downt	-5811
▁dream	-5812
▁earth	-5813
▁enemy	-5814
▁entit	-5815
▁fewer	-5816
▁grows	-5817
▁happy	-5818
▁heard	-5819
▁hyper	-5820
▁inhab	-5821
▁kinds	-5822
▁lacks	-5823
▁manif	-5824
▁mount	-5825
▁newly	-5826
▁refus	-5827
▁schol	-5828
▁sites	-5829
▁slump	-5830
▁stark	-5831
▁stood	-5832
▁stuck	-5833
▁thres	-5834
▁users	-5835
▁utter	-5836
▁voted	-5837
Pacific	-5838
inished	-5839
ortions	-5840
private	-5841
society	-5842
viously	-5843
▁Before	-5844
▁Canada	-5845
▁Energy	-5846
▁Sweden	-5847
▁actual	-5848
▁analog	-5849
▁applic	-5850
▁apprec	-5851
▁argues	-5852
▁belong	-5853
▁bodies	-5854
▁brings	-5855
▁charge	-5856
▁courts	-5857
▁dilemm	-5858
▁disint	-5859
▁divers	-5860
▁enrich	-5861
▁flawed	-5862
▁inspir	-5863
▁invent	-5864
▁island	-5865
▁marked	-5866
▁propag	-5867
▁proved	-5868
▁rarely	-5869
▁reluct	-5870
▁satell	-5871
▁seeing	-5872
▁showed	-5873
▁sooner	-5874
▁steady	-5875
▁transm	-5876
▁travel	-5877
▁warned	-5878
▁wonder	-5879
aluation	-5880
atlantic	-5881
currency	-5882
lessness	-5883
oriented	-5884
vestment	-5885
▁Bretton	-5886
▁Conserv	-5887
▁England	-5888
▁Justice	-5889
▁Koreans	-5890
▁Whether	-5891
▁capable	-5892
▁centers	-5893
▁chances	-5894
▁charges	-5895
▁citizen	-5896
▁classes	-5897
▁comfort	-5898
▁content	-5899
▁contrad	-5900
▁creates	-5901
▁diverse	-5902
▁enhance	-5903
▁feature	-5904
▁joining	-5905
▁justify	-5906
▁killing	-5907
▁network	-5908
▁package	-5909
▁peoples	-5910
▁perfect	-5911
▁poorest	-5912
▁possess	-5913
▁pursued	-5914
▁pushing	-5915
▁rightly	-5916
▁routine	-5917
▁schemes	-5918
▁species	-5919
▁stopped	-5920
▁version	-5921
▁visible	-5922
▁weather	-5923
▁worried	-5924
ressional	-5925
▁Brussels	-5926
▁Business	-5927
▁Facebook	-5928
▁February	-5929
▁accepted	-5930
▁adopting	-5931
▁annivers	-5932
▁announce	-5933
▁boosting	-5934
▁channels	-5935
▁cohesion	-5936
▁complain	-5937
▁creditor	-5938
▁declines	-5939
▁dominate	-5940
▁dynamics	-5941
▁estimate	-5942
▁explicit	-5943
▁frequent	-5944
▁illusion	-5945
▁imposing	-5946
▁limiting	-5947
▁machines	-5948
▁offering	-5949
▁opposite	-5950
▁overseas	-5951
▁persuade	-5952
▁publicly	-5953
▁pursuing	-5954
▁released	-5955
▁resolved	-5956
▁resulted	-5957
▁revealed	-5958
▁supports	-5959
▁upcoming	-5960
▁Churchill	-5961
▁Palestine	-5962
▁Represent	-5963
▁Southeast	-5964
▁Venezuela	-5965
▁awareness	-5966
▁benchmark	-5967
▁catastrop	-5968
▁confident	-5969
▁discrimin	-5970
▁dominance	-5971
▁eliminate	-5972
▁guarantee	-5973
▁investing	-5974
▁obstacles	-5975
▁predicted	-5976
▁producers	-5977
▁provision	-5978
▁regarding	-5979
▁remaining	-5980
▁responses	-5981
▁seemingly	-5982
▁similarly	-5983
▁spreading	-5984
▁surprised	-5985
▁threshold	-5986
▁accomplish	-5987
▁delivering	-5988
▁depression	-5989
▁executives	-5990
▁frequently	-5991
▁inadequate	-5992
▁integrated	-5993
▁likelihood	-5994
▁meaningful	-5995
▁phenomenon	-5996
▁productive	-5997
▁prosperous	-5998
▁punishment	-5999
▁purchasing	-6000
▁remarkable	-6001
▁unilateral	-6002
governmental	-6003
▁confronting	-6004
▁convergence	-6005
▁discussions	-6006
▁instability	-6007
▁involvement	-6008
▁manufacture	-6009
▁nationalist	-6010
▁progressive	-6011
▁threatening	-6012
▁deflationary	-6013
▁dramatically	-6014
▁implementing	-6015
▁stakeholders	-6016
▁confrontation	-6017
▁extraordinary	-6018
▁parliamentary	-6019
▁relationships	-6020
▁restructuring	-6021
▁unsustainable	-6022
▁communications	-6023
.2	-6024
2.	-6025
5-	-6026
bl	-6027
fe	-6028
lu	-6029
▁·	-6030
...	-6031
500	-6032
ASH	-6033
RID	-6034
afi	-6035
asy	-6036
aus	-6037
bas	-6038
bed	-6039
iev	-6040
ika	-6041
ini	-6042
ipe	-6043
iti	-6044
lay	-6045
los	-6046
ole	-6047
rav	-6048
spe	-6049
tax	-6050
urg	-6051
vey	-6052
xic	-6053
zed	-6054
▁1%	-6055
▁27	-6056
▁60	-6057
▁Ac	-6058
▁Bh	-6059
▁Ne	-6060
▁et	-6061
ador	-6062
adow	-6063
airo	-6064
alia	-6065
alle	-6066
anke	-6067
atch	-6068
ball	-6069
comm	-6070
cost	-6071
dict	-6072
enei	-6073
ersc	-6074
hand	-6075
hani	-6076
iang	-6077
idel	-6078
ifth	-6079
izon	-6080
math	-6081
ogle	-6082
onia	-6083
osis	-6084
ping	-6085
real	-6086
resh	-6087
such	-6088
unch	-6089
utal	-6090
yers	-6091
▁500	-6092
▁80%	-6093
▁App	-6094
▁BRI	-6095
▁End	-6096
▁Eth	-6097
▁Hit	-6098
▁Inf	-6099
▁MAD	-6100
▁Mos	-6101
▁Naz	-6102
▁Nic	-6103
▁Pen	-6104
▁Vol	-6105
▁Wal	-6106
▁ast	-6107
▁ded	-6108
▁doz	-6109
▁eat	-6110
▁eru	-6111
▁fit	-6112
▁hub	-6113
▁inj	-6114
▁obt	-6115
▁pie	-6116
▁son	-6117
▁tit	-6118
China	-6119
agues	-6120
ained	-6121
archy	-6122
astic	-6123
claim	-6124
endly	-6125
enses	-6126
essim	-6127
etter	-6128
ifies	-6129
iliar	-6130
itter	-6131
large	-6132
level	-6133
oking	-6134
orrow	-6135
orter	-6136
water	-6137
▁Belg	-6138
▁Bill	-6139
▁Kham	-6140
▁Once	-6141
▁Plan	-6142
▁Stan	-6143
▁True	-6144
▁WASH	-6145
▁Wolf	-6146
▁Zeal	-6147
▁acad	-6148
▁bloc	-6149
▁caut	-6150
▁drag	-6151
▁ease	-6152
▁feed	-6153
▁fool	-6154
▁grew	-6155
▁jump	-6156
▁king	-6157
▁male	-6158
▁mudd	-6159
▁roll	-6160
▁root	-6161
▁send	-6162
▁shut	-6163
▁suit	-6164
▁teac	-6165
▁topp	-6166
▁unex	-6167
INGTON	-6168
alling	-6169
asible	-6170
crisis	-6171
erving	-6172
estate	-6173
esters	-6174
illenn	-6175
ipping	-6176
ivered	-6177
lessly	-6178
orious	-6179
ounced	-6180
ounded	-6181
retion	-6182
uction	-6183
▁2007,	-6184
▁2009,	-6185
▁2012,	-6186
▁ASEAN	-6187
▁Boliv	-6188
▁Fried	-6189
▁Goals	-6190
▁Kenya	-6191
▁Somet	-6192
▁Three	-6193
▁abuse	-6194
▁actor	-6195
▁alive	-6196
▁bills	-6197
▁broke	-6198
▁champ	-6199
▁compr	-6200
▁crops	-6201
▁doesn	-6202
▁draft	-6203
▁faith	-6204
▁fruit	-6205
▁gases	-6206
▁genoc	-6207
▁guide	-6208
▁helps	-6209
▁judge	-6210
▁juris	-6211
▁match	-6212
▁merit	-6213
▁micro	-6214
▁polls	-6215
▁poses	-6216
▁print	-6217
▁ranks	-6218
▁recip	-6219
▁relax	-6220
▁rigid	-6221
▁rival	-6222
▁shale	-6223
▁woman	-6224
develop	-6225
ilience	-6226
illance	-6227
keeping	-6228
▁Fiscal	-6229
▁Google	-6230
▁Hitler	-6231
▁MADRID	-6232
▁Nether	-6233
▁Public	-6234
▁allows	-6235
▁animal	-6236
▁asking	-6237
▁assass	-6238
▁assert	-6239
▁attrib	-6240
▁backed	-6241
▁bigger	-6242
▁bloody	-6243
▁bought	-6244
▁career	-6245
▁checks	-6246
▁closed	-6247
▁defeat	-6248
▁dispar	-6249
▁donors	-6250
▁figure	-6251
▁forget	-6252
▁ignore	-6253
▁launch	-6254
▁notice	-6255
▁poorer	-6256
▁presum	-6257
▁proced	-6258
▁prosec	-6259
▁raises	-6260
▁richer	-6261
▁sacrif	-6262
▁safegu	-6263
▁series	-6264
▁slight	-6265
▁street	-6266
▁viable	-6267
▁weight	-6268
cyclical	-6269
exchange	-6270
interest	-6271
ognitive	-6272
olutions	-6273
▁Algeria	-6274
▁Charles	-6275
▁Defense	-6276
▁English	-6277
▁Michael	-6278
▁Sanders	-6279
▁Tunisia	-6280
▁adverse	-6281
▁aggress	-6282
▁animals	-6283
▁automob	-6284
▁closing	-6285
▁convers	-6286
▁courage	-6287
▁doctors	-6288
▁entered	-6289
▁essence	-6290
▁evident	-6291
▁exactly	-6292
▁failing	-6293
▁forcing	-6294
▁fueling	-6295
▁ignored	-6296
▁inflows	-6297
▁intense	-6298
▁lasting	-6299
▁lawyers	-6300
▁liberty	-6301
▁malaria	-6302
▁neutral	-6303
▁operate	-6304
▁permits	-6305
▁persist	-6306
▁picture	-6307
▁portfol	-6308
▁profess	-6309
▁pursuit	-6310
▁ratings	-6311
▁reinfor	-6312
▁resolve	-6313
▁scandal	-6314
▁serving	-6315
▁undersc	-6316
elligence	-6317
including	-6318
intensive	-6319
largement	-6320
struction	-6321
▁Africans	-6322
▁Bernanke	-6323
▁Catholic	-6324
▁Khamenei	-6325
▁Partners	-6326
▁Portugal	-6327
▁captured	-6328
▁cautious	-6329
▁choosing	-6330
▁democrat	-6331
▁deposits	-6332
▁disinteg	-6333
▁distrust	-6334
▁downturn	-6335
▁downward	-6336
▁expanded	-6337
▁focusing	-6338
▁imported	-6339
▁interact	-6340
▁momentum	-6341
▁original	-6342
▁overlook	-6343
▁populism	-6344
▁produces	-6345
▁purposes	-6346
▁severely	-6347
▁standing	-6348
▁straight	-6349
▁suddenly	-6350
▁taxation	-6351
▁threaten	-6352
▁unstable	-6353
▁vehicles	-6354
productive	-6355
▁Political	-6356
▁Stability	-6357
▁activists	-6358
▁aftermath	-6359
▁ambitions	-6360
▁arguments	-6361
▁benefited	-6362
▁component	-6363
▁convinced	-6364
▁delivered	-6365
▁displaced	-6366
▁diversity	-6367
▁executive	-6368
▁favorable	-6369
▁incentive	-6370
▁initially	-6371
▁integrate	-6372
▁intention	-6373
▁motivated	-6374
▁preferred	-6375
▁prevented	-6376
▁realistic	-6377
▁realities	-6378
▁secondary	-6379
▁strongest	-6380
▁successes	-6381
▁suggested	-6382
▁translate	-6383
▁triggered	-6384
▁Depression	-6385
▁WASHINGTON	-6386
▁beneficial	-6387
▁completely	-6388
▁consistent	-6389
▁criticized	-6390
▁earthquake	-6391
▁emphasized	-6392
▁highlights	-6393
▁identified	-6394
▁irrational	-6395
▁negotiated	-6396
▁persistent	-6397
▁protesters	-6398
▁solidarity	-6399
▁Netherlands	-6400
▁Sustainable	-6401
▁accordingly	-6402
▁catastrophe	-6403
▁connections	-6404
▁declaration	-6405
▁destructive	-6406
▁foundations	-6407
▁ideological	-6408
▁ineffective	-6409
▁inefficient	-6410
▁institution	-6411
▁operational	-6412
▁partnership	-6413
▁predictable	-6414
▁requirement	-6415
▁settlements	-6416
▁territories	-6417
▁achievements	-6418
▁compensation	-6419
▁constructive	-6420
▁contribution	-6421
▁fundamentals	-6422
▁humanitarian	-6423
▁manipulation	-6424
▁respectively	-6425
▁strengthened	-6426
▁surprisingly	-6427
▁characterized	-6428
▁communication	-6429
▁concentration	-6430
▁transnational	-6431
45	-6432
AR	-6433
CS	-6434
Es	-6435
KY	-6436
sc	-6437
ta	-6438
yo	-6439
zo	-6440
ón	-6441
▁¥	-6442
.9%	-6443
KYO	-6444
Pal	-6445
Pro	-6446
akh	-6447
alf	-6448
bod	-6449
cor	-6450
den	-6451
ibi	-6452
ikh	-6453
iol	-6454
itz	-6455
jad	-6456
jan	-6457
lor	-6458
ney	-6459
och	-6460
oms	-6461
pan	-6462
roc	-6463
run	-6464
ses	-6465
she	-6466
ull	-6467
uzz	-6468
▁2.	-6469
▁BR	-6470
▁Hu	-6471
▁TO	-6472
Russ	-6473
agan	-6474
ales	-6475
appe	-6476
avia	-6477
cker	-6478
cles	-6479
coni	-6480
gies	-6481
iary	-6482
igen	-6483
inal	-6484
ipit	-6485
irty	-6486
itch	-6487
ixon	-6488
lers	-6489
lock	-6490
ocol	-6491
odox	-6492
okyo	-6493
omic	-6494
orld	-6495
osen	-6496
outs	-6497
pers	-6498
rans	-6499
rete	-6500
ropr	-6501
ship	-6502
soft	-6503
supp	-6504
tech	-6505
with	-6506
▁15%	-6507
▁70%	-6508
▁Abd	-6509
▁Cro	-6510
▁Cub	-6511
▁Del	-6512
▁Dra	-6513
▁Far	-6514
▁Inc	-6515
▁Jin	-6516
▁Ref	-6517
▁Rel	-6518
▁Som	-6519
▁Sub	-6520
▁bes	-6521
▁bid	-6522
▁ech	-6523
▁fel	-6524
▁fra	-6525
▁fun	-6526
▁hed	-6527
▁hun	-6528
▁hyd	-6529
▁hyp	-6530
▁isn	-6531
▁neo	-6532
▁pra	-6533
▁rac	-6534
▁rub	-6535
▁sad	-6536
▁sea	-6537
▁upg	-6538
▁vig	-6539
Sahar	-6540
apers	-6541
aulle	-6542
icted	-6543
iforn	-6544
ijing	-6545
illed	-6546
ional	-6547
isher	-6548
ishes	-6549
istry	-6550
itzer	-6551
izers	-6552
ollar	-6553
olved	-6554
rates	-6555
reens	-6556
ugher	-6557
usual	-6558
▁2005	-6559
▁Deng	-6560
▁Each	-6561
▁Hill	-6562
▁Hung	-6563
▁Modi	-6564
▁Next	-6565
▁Serv	-6566
▁Supp	-6567
▁Work	-6568
▁alli	-6569
▁amid	-6570
▁anch	-6571
▁aren	-6572
▁club	-6573
▁cong	-6574
▁didn	-6575
▁dign	-6576
▁door	-6577
▁enro	-6578
▁evil	-6579
▁eyes	-6580
▁fort	-6581
▁gets	-6582
▁hero	-6583
▁join	-6584
▁love	-6585
▁pose	-6586
▁rice	-6587
▁rock	-6588
▁scar	-6589
▁text	-6590
▁tons	-6591
▁tort	-6592
▁unch	-6593
advant	-6594
arters	-6595
ashion	-6596
aution	-6597
ctrine	-6598
energy	-6599
icians	-6600
icious	-6601
ilater	-6602
inated	-6603
irable	-6604
liance	-6605
matism	-6606
othing	-6607
regard	-6608
terror	-6609
▁1989,	-6610
▁2005,	-6611
▁2013.	-6612
▁2015.	-6613
▁Above	-6614
▁Among	-6615
▁Armen	-6616
▁Found	-6617
▁Green	-6618
▁Kyoto	-6619
▁Labor	-6620
▁Nixon	-6621
▁Power	-6622
▁Prize	-6623
▁Qatar	-6624
▁TOKYO	-6625
▁Tokyo	-6626
▁Using	-6627
▁White	-6628
▁alarm	-6629
▁arise	-6630
▁brand	-6631
▁color	-6632
▁consc	-6633
▁crash	-6634
▁cycle	-6635
▁defin	-6636
▁dimin	-6637
▁escal	-6638
▁fatal	-6639
▁feels	-6640
▁fresh	-6641
▁genes	-6642
▁grass	-6643
▁ideal	-6644
▁ignor	-6645
▁moder	-6646
▁notes	-6647
▁plant	-6648
▁pound	-6649
▁proud	-6650
▁quiet	-6651
▁reass	-6652
▁reign	-6653
▁shall	-6654
▁solar	-6655
▁speak	-6656
▁table	-6657
▁tends	-6658
▁turns	-6659
▁twice	-6660
▁unite	-6661
▁write	-6662
Israeli	-6663
Saharan	-6664
agogues	-6665
alities	-6666
attered	-6667
balance	-6668
induced	-6669
istical	-6670
lihoods	-6671
osition	-6672
osystem	-6673
theless	-6674
ultural	-6675
▁Author	-6676
▁Change	-6677
▁Gaulle	-6678
▁Labour	-6679
▁Morocc	-6680
▁Others	-6681
▁Reagan	-6682
▁Serbia	-6683
▁bottom	-6684
▁brutal	-6685
▁buying	-6686
▁calcul	-6687
▁caught	-6688
▁circle	-6689
▁clause	-6690
▁decent	-6691
▁devast	-6692
▁disapp	-6693
▁divide	-6694
▁exists	-6695
▁fields	-6696
▁formed	-6697
▁headed	-6698
▁honest	-6699
▁opened	-6700
▁overth	-6701
▁paraly	-6702
▁philos	-6703
▁plight	-6704
▁privat	-6705
▁purely	-6706
▁quotas	-6707
▁rebels	-6708
▁replac	-6709
▁resort	-6710
▁retail	-6711
▁retain	-6712
▁rooted	-6713
▁solved	-6714
▁sports	-6715
▁talent	-6716
▁trials	-6717
ceptions	-6718
function	-6719
ifically	-6720
iliation	-6721
ollowing	-6722
oubtedly	-6723
▁Beijing	-6724
▁Constit	-6725
▁Foreign	-6726
▁Hillary	-6727
▁Journal	-6728
▁Several	-6729
▁Somalia	-6730
▁Switzer	-6731
▁Through	-6732
▁article	-6733
▁assault	-6734
▁burning	-6735
▁combine	-6736
▁confirm	-6737
▁consent	-6738
▁coordin	-6739
▁cutting	-6740
▁deposit	-6741
▁enabled	-6742
▁enlight	-6743
▁exposed	-6744
▁foresee	-6745
▁fragile	-6746
▁harmful	-6747
▁immense	-6748
▁inhabit	-6749
▁interim	-6750
▁islands	-6751
▁keeping	-6752
▁legally	-6753
▁mothers	-6754
▁neglect	-6755
▁optimal	-6756
▁patient	-6757
▁premium	-6758
▁reading	-6759
▁relying	-6760
▁removed	-6761
▁restric	-6762
▁reverse	-6763
▁shaping	-6764
▁sharing	-6765
▁silence	-6766
▁strikes	-6767
▁student	-6768
▁talking	-6769
▁tougher	-6770
▁treated	-6771
▁trigger	-6772
▁trouble	-6773
▁wealthy	-6774
▁western	-6775
autionary	-6776
reduction	-6777
retionary	-6778
ronically	-6779
▁Californ	-6780
▁Hollande	-6781
▁Interest	-6782
▁Israelis	-6783
▁Northern	-6784
▁Research	-6785
▁civilian	-6786
▁colonial	-6787
▁conclude	-6788
▁cultures	-6789
▁detailed	-6790
▁discount	-6791
▁discoura	-6792
▁division	-6793
▁elements	-6794
▁employed	-6795
▁extended	-6796
▁famously	-6797
▁finances	-6798
▁fraction	-6799
▁genocide	-6800
▁ideology	-6801
▁inherent	-6802
▁inspired	-6803
▁investig	-6804
▁judgment	-6805
▁manifest	-6806
▁missiles	-6807
▁mistakes	-6808
▁monopoly	-6809
▁mutually	-6810
▁numerous	-6811
▁observed	-6812
▁occupied	-6813
▁officers	-6814
▁pensions	-6815
▁platform	-6816
▁reliable	-6817
▁revision	-6818
▁strongly	-6819
▁superior	-6820
ilaterally	-6821
ordination	-6822
performing	-6823
▁Countries	-6824
▁Keynesian	-6825
▁accession	-6826
▁affecting	-6827
▁alliances	-6828
▁automatic	-6829
▁broadband	-6830
▁campaigns	-6831
▁construct	-6832
▁desperate	-6833
▁disadvant	-6834
▁disasters	-6835
▁discourse	-6836
▁emergency	-6837
▁employers	-6838
▁estimated	-6839
▁governing	-6840
▁highlight	-6841
▁landscape	-6842
▁operation	-6843
▁ownership	-6844
▁preparing	-6845
▁prominent	-6846
▁protected	-6847
▁resolving	-6848
▁restraint	-6849
▁stabilize	-6850
▁successor	-6851
▁suspicion	-6852
▁unwilling	-6853
▁workforce	-6854
▁Foundation	-6855
▁Industrial	-6856
▁Ultimately	-6857
▁adaptation	-6858
▁advantages	-6859
▁atmosphere	-6860
▁colleagues	-6861
▁compelling	-6862
▁concerning	-6863
▁diminished	-6864
▁discipline	-6865
▁foundation	-6866
▁guarantees	-6867
▁infectious	-6868
▁occupation	-6869
▁parameters	-6870
▁procedures	-6871
▁propaganda	-6872
▁resilience	-6873
▁statements	-6874
▁statistics	-6875
▁structured	-6876
▁subsequent	-6877
▁supposedly	-6878
▁temptation	-6879
▁treatments	-6880
▁witnessing	-6881
▁Partnership	-6882
▁Philippines	-6883
▁Switzerland	-6884
▁consequence	-6885
▁cooperative	-6886
▁demonstrate	-6887
▁derivatives	-6888
▁enforcement	-6889
▁exclusively	-6890
▁existential	-6891
▁financially	-6892
▁functioning	-6893
▁livelihoods	-6894
▁negotiation	-6895
▁predecessor	-6896
▁problematic	-6897
Proliferation	-6898
▁Nevertheless	-6899
▁accomplished	-6900
▁aggressively	-6901
▁alternatives	-6902
▁capabilities	-6903
▁considerably	-6904
▁consistently	-6905
▁counterparts	-6906
▁dictatorship	-6907
▁expenditures	-6908
▁improvements	-6909
▁interference	-6910
▁neighborhood	-6911
▁participants	-6912
▁restrictions	-6913
▁surveillance	-6914
▁effectiveness	-6915
▁intellectuals	-6916
▁investigation	-6917
▁proliferation	-6918
▁psychological	-6919
▁accountability	-6920
▁considerations	-6921
▁reconciliation	-6922
▁representative	-6923
8.	-6924
9.	-6925
CD	-6926
EU	-6927
GB	-6928
HI	-6929
IP	-6930
PM	-6931
SB	-6932
ko	-6933
ky	-6934
oo	-6935
án	-6936
”?	-6937
DGs	-6938
FTA	-6939
IIB	-6940
NCE	-6941
SIS	-6942
ati	-6943
bar	-6944
but	-6945
cut	-6946
edd	-6947
eth	-6948
exp	-6949
ghi	-6950
igm	-6951
iop	-6952
iry	-6953
ius	-6954
ket	-6955
len	-6956
met	-6957
ola	-6958
oon	-6959
ovo	-6960
raf	-6961
rik	-6962
ura	-6963
vez	-6964
▁17	-6965
▁21	-6966
▁24	-6967
▁26	-6968
▁3.	-6969
▁7%	-6970
▁70	-6971
▁Ah	-6972
▁Ay	-6973
▁BE	-6974
▁Cz	-6975
▁Gh	-6976
▁NG	-6977
▁PA	-6978
▁SM	-6979
▁Su	-6980
agen	-6981
aled	-6982
alin	-6983
aron	-6984
athy	-6985
atia	-6986
axim	-6987
bled	-6988
cell	-6989
crib	-6990
erly	-6991
ests	-6992
face	-6993
fire	-6994
hard	-6995
iasm	-6996
icon	-6997
idge	-6998
iful	-6999
iump	-7000
lash	-7001
made	-7002
mans	-7003
need	-7004
ogen	-7005
olas	-7006
oned	-7007
pper	-7008
prom	-7009
rand	-7010
rase	-7011
room	-7012
ruck	-7013
uity	-7014
usse	-7015
well	-7016
wind	-7017
wood	-7018
▁150	-7019
▁191	-7020
▁203	-7021
▁35%	-7022
▁Ann	-7023
▁Ant	-7024
▁CCP	-7025
▁CIA	-7026
▁Chá	-7027
▁Cle	-7028
▁Dis	-7029
▁Her	-7030
▁Imm	-7031
▁Lis	-7032
▁Mad	-7033
▁Mah	-7034
▁Nat	-7035
▁PRI	-7036
▁Rou	-7037
▁Spe	-7038
▁Xia	-7039
▁You	-7040
▁anc	-7041
▁bur	-7042
▁cab	-7043
▁dub	-7044
▁dys	-7045
▁etc	-7046
▁eye	-7047
▁fle	-7048
▁gar	-7049
▁hom	-7050
▁kil	-7051
▁lev	-7052
▁map	-7053
▁mun	-7054
▁sle	-7055
▁spl	-7056
▁swe	-7057
▁tip	-7058
▁vir	-7059
arraf	-7060
arted	-7061
aysia	-7062
bonds	-7063
egoti	-7064
elect	-7065
front	-7066
hered	-7067
iates	-7068
ibiot	-7069
icket	-7070
isite	-7071
iumph	-7072
leted	-7073
night	-7074
occup	-7075
olute	-7076
ormal	-7077
osure	-7078
place	-7079
rones	-7080
ruits	-7081
stone	-7082
ungry	-7083
urate	-7084
vered	-7085
▁1930	-7086
▁1970	-7087
▁2050	-7088
▁AIIB	-7089
▁Alex	-7090
▁Army	-7091
▁Back	-7092
▁Coop	-7093
▁Crit	-7094
▁Dire	-7095
▁Jong	-7096
▁Mart	-7097
▁Much	-7098
▁Mult	-7099
▁Mush	-7100
▁Near	-7101
▁News	-7102
▁Rome	-7103
▁Spec	-7104
▁Time	-7105
▁WWII	-7106
▁aims	-7107
▁barg	-7108
▁born	-7109
▁cens	-7110
▁cold	-7111
▁dele	-7112
▁edit	-7113
▁elev	-7114
▁grid	-7115
▁hear	-7116
▁hege	-7117
▁hier	-7118
▁hurt	-7119
▁laid	-7120
▁lift	-7121
▁meat	-7122
▁myth	-7123
▁nine	-7124
▁odds	-7125
▁olig	-7126
▁outl	-7127
▁pays	-7128
▁pick	-7129
▁plun	-7130
▁prud	-7131
▁rank	-7132
▁rend	-7133
▁sake	-7134
▁sets	-7135
▁skin	-7136
▁sort	-7137
▁stig	-7138
▁succ	-7139
▁triv	-7140
▁turb	-7141
▁vent	-7142
▁wife	-7143
NCETON	-7144
adjust	-7145
ailure	-7146
cially	-7147
commun	-7148
ferent	-7149
iciary	-7150
ildren	-7151
istant	-7152
iverse	-7153
necess	-7154
nected	-7155
ocracy	-7156
orship	-7157
otland	-7158
rading	-7159
redict	-7160
▁2009.	-7161
▁2012.	-7162
▁BRICS	-7163
▁Cairo	-7164
▁Crime	-7165
▁Czech	-7166
▁Doing	-7167
▁Henry	-7168
▁Rober	-7169
▁Techn	-7170
▁Worse	-7171
▁acute	-7172
▁alike	-7173
▁amend	-7174
▁ample	-7175
▁brief	-7176
▁coerc	-7177
▁coinc	-7178
▁conce	-7179
▁corre	-7180
▁daugh	-7181
▁drawn	-7182
▁embry	-7183
▁flaws	-7184
▁fluct	-7185
▁forth	-7186
▁fraud	-7187
▁fuels	-7188
▁griev	-7189
▁gross	-7190
▁grown	-7191
▁hoped	-7192
▁hypoc	-7193
▁indif	-7194
▁input	-7195
▁label	-7196
▁logic	-7197
▁loose	-7198
▁named	-7199
▁naval	-7200
▁plaus	-7201
▁postp	-7202
▁pride	-7203
▁refer	-7204
▁reput	-7205
▁roads	-7206
▁ruled	-7207
▁safer	-7208
▁seats	-7209
▁seeks	-7210
▁spons	-7211
▁staff	-7212
▁steep	-7213
▁tanks	-7214
▁toxic	-7215
▁tyran	-7216
▁units	-7217
▁wield	-7218
ajority	-7219
alemate	-7220
angible	-7221
eltdown	-7222
entions	-7223
forward	-7224
inction	-7225
jectory	-7226
lusconi	-7227
lusions	-7228
ologist	-7229
ometers	-7230
riminal	-7231
uration	-7232
▁Almost	-7233
▁Bashar	-7234
▁Cambod	-7235
▁Credit	-7236
▁Draghi	-7237
▁Ethiop	-7238
▁Greens	-7239
▁Kosovo	-7240
▁Lisbon	-7241
▁Prince	-7242
▁Reform	-7243
▁Rights	-7244
▁Romney	-7245
▁Sharon	-7246
▁Stalin	-7247
▁Strate	-7248
▁Unless	-7249
▁Within	-7250
▁absent	-7251
▁abuses	-7252
▁adding	-7253
▁advent	-7254
▁advice	-7255
▁anchor	-7256
▁ballot	-7257
▁broken	-7258
▁cataly	-7259
▁chains	-7260
▁chosen	-7261
▁corner	-7262
▁cycles	-7263
▁deaths	-7264
▁degrad	-7265
▁demise	-7266
▁deprec	-7267
▁exclud	-7268
▁explos	-7269
▁fourth	-7270
▁humili	-7271
▁hunger	-7272
▁injust	-7273
▁insuff	-7274
▁irrele	-7275
▁lifest	-7276
▁linked	-7277
▁memory	-7278
▁missed	-7279
▁openly	-7280
▁overly	-7281
▁persec	-7282
▁pessim	-7283
▁pledge	-7284
▁pretty	-7285
▁provoc	-7286
▁pulled	-7287
▁rebell	-7288
▁relies	-7289
▁remitt	-7290
▁scarce	-7291
▁seized	-7292
▁shadow	-7293
▁slower	-7294
▁specul	-7295
▁spends	-7296
▁spring	-7297
▁strict	-7298
▁struck	-7299
▁tackle	-7300
▁tended	-7301
▁timing	-7302
▁traded	-7303
▁tragic	-7304
▁unions	-7305
▁upward	-7306
▁winner	-7307
▁worker	-7308
adjusted	-7309
ortheast	-7310
▁Bolivia	-7311
▁Croatia	-7312
▁Freedom	-7313
▁Jinping	-7314
▁Olympic	-7315
▁Science	-7316
▁Zealand	-7317
▁accused	-7318
▁acquies	-7319
▁anxiety	-7320
▁applies	-7321
▁artific	-7322
▁aspects	-7323
▁bolster	-7324
▁broadly	-7325
▁brother	-7326
▁bubbles	-7327
▁carries	-7328
▁categor	-7329
▁college	-7330
▁condemn	-7331
▁convinc	-7332
▁dangers	-7333
▁declare	-7334
▁degrees	-7335
▁devoted	-7336
▁dilemma	-7337
▁disappe	-7338
▁dismiss	-7339
▁display	-7340
▁disturb	-7341
▁dropped	-7342
▁elderly	-7343
▁enables	-7344
▁erupted	-7345
▁exploit	-7346
▁explore	-7347
▁fashion	-7348
▁follows	-7349
▁founded	-7350
▁gaining	-7351
▁grounds	-7352
▁heading	-7353
▁herself	-7354
▁hostile	-7355
▁illness	-7356
▁lenders	-7357
▁looking	-7358
▁missing	-7359
▁monthly	-7360
▁municip	-7361
▁outlook	-7362
▁outrage	-7363
▁planned	-7364
▁prerequ	-7365
▁prescri	-7366
▁refused	-7367
▁retreat	-7368
▁soaring	-7369
▁spectac	-7370
▁stalled	-7371
▁suffers	-7372
▁surveys	-7373
▁testing	-7374
▁tourism	-7375
▁triumph	-7376
▁typical	-7377
▁unknown	-7378
▁village	-7379
▁writing	-7380
connected	-7381
financial	-7382
illennium	-7383
▁Malaysia	-7384
▁Medicare	-7385
▁Olympics	-7386
▁Together	-7387
▁absolute	-7388
▁accurate	-7389
▁actively	-7390
▁adequate	-7391
▁ambition	-7392
▁analysts	-7393
▁approval	-7394
▁attacked	-7395
▁autonomy	-7396
▁averaged	-7397
▁backlash	-7398
▁balances	-7399
▁believes	-7400
▁carrying	-7401
▁comments	-7402
▁concrete	-7403
▁disagree	-7404
▁doctrine	-7405
▁document	-7406
▁embraced	-7407
▁entities	-7408
▁exposure	-7409
▁facility	-7410
▁feasible	-7411
▁features	-7412
▁foremost	-7413
▁fragment	-7414
▁incident	-7415
▁indicate	-7416
▁managers	-7417
▁measured	-7418
▁mortgage	-7419
▁outbreak	-7420
▁precipit	-7421
▁proclaim	-7422
▁properly	-7423
▁realized	-7424
▁recorded	-7425
▁reversed	-7426
▁securing	-7427
▁separate	-7428
▁shifting	-7429
▁shortage	-7430
▁tendency	-7431
▁terrible	-7432
▁unexpect	-7433
▁worrying	-7434
industrial	-7435
▁Authority	-7436
▁Economics	-7437
▁Institute	-7438
▁Musharraf	-7439
▁Otherwise	-7440
▁PRINCETON	-7441
▁Pakistani	-7442
▁appealing	-7443
▁attempted	-7444
▁buildings	-7445
▁carefully	-7446
▁cognitive	-7447
▁communism	-7448
▁concerted	-7449
▁confirmed	-7450
▁dimension	-7451
▁ecosystem	-7452
▁existence	-7453
▁extending	-7454
▁extensive	-7455
▁functions	-7456
▁insolvent	-7457
▁intervene	-7458
▁involving	-7459
▁judiciary	-7460
▁mortgages	-7461
▁nutrition	-7462
▁obviously	-7463
▁periphery	-7464
▁plausible	-7465
▁precedent	-7466
▁principal	-7467
▁promotion	-7468
▁recapital	-7469
▁recommend	-7470
▁regularly	-7471
▁reinforce	-7472
▁residents	-7473
▁satellite	-7474
▁struggles	-7475
▁undertake	-7476
▁unpredict	-7477
iodiversity	-7478
▁Berlusconi	-7479
▁California	-7480
▁Investment	-7481
▁Treasuries	-7482
▁allegiance	-7483
▁attraction	-7484
▁background	-7485
▁censorship	-7486
▁comparable	-7487
▁constitute	-7488
▁continuous	-7489
▁contradict	-7490
▁definition	-7491
▁dimensions	-7492
▁discovered	-7493
▁enterprise	-7494
▁enthusiasm	-7495
▁generating	-7496
▁geographic	-7497
▁impression	-7498
▁impressive	-7499
▁indicators	-7500
▁insolvency	-7501
▁kilometers	-7502
▁maintained	-7503
▁minorities	-7504
▁optimistic	-7505
▁perception	-7506
▁popularity	-7507
▁pragmatism	-7508
▁prevailing	-7509
▁protecting	-7510
▁recognizes	-7511
▁retirement	-7512
▁sanitation	-7513
▁succession	-7514
▁suggesting	-7515
▁trajectory	-7516
▁undergoing	-7517
▁Brotherhood	-7518
▁Cooperation	-7519
▁anniversary	-7520
▁bureaucracy	-7521
▁challenging	-7522
▁communicate	-7523
▁complicated	-7524
▁considering	-7525
▁destination	-7526
▁distinctive	-7527
▁distortions	-7528
▁eliminating	-7529
▁enlightened	-7530
▁implication	-7531
▁importantly	-7532
▁influential	-7533
▁inhabitants	-7534
▁inspiration	-7535
▁interesting	-7536
▁neighboring	-7537
▁personality	-7538
▁remittances	-7539
▁transformed	-7540
▁undoubtedly	-7541
▁accelerating	-7542
▁announcement	-7543
▁architecture	-7544
▁availability	-7545
▁coordination	-7546
▁domestically	-7547
▁insufficient	-7548
▁significance	-7549
▁specifically	-7550
▁subsidiaries	-7551
▁unilaterally	-7552
▁determination	-7553
▁discretionary	-7554
▁manufacturers	-7555
▁precautionary	-7556
▁discrimination	-7557
▁disintegration	-7558
▁reconstruction	-7559
▁Representatives	-7560
▁straightforward	-7561
-2	-7562
-3	-7563
-7	-7564
.4	-7565
AV	-7566
As	-7567
CA	-7568
DI	-7569
EM	-7570
IT	-7571
MU	-7572
OS	-7573
SF	-7574
SR	-7575
VA	-7576
ao	-7577
da	-7578
hy	-7579
me	-7580
no	-7581
tt	-7582
tw	-7583
va	-7584
▁&	-7585
▁z	-7586
.3%	-7587
Ass	-7588
ELS	-7589
FOR	-7590
GDP	-7591
RIS	-7592
Sem	-7593
USS	-7594
ali	-7595
asp	-7596
ato	-7597
att	-7598
cel	-7599
cow	-7600
dep	-7601
des	-7602
emb	-7603
enz	-7604
hou	-7605
iox	-7606
lie	-7607
mpt	-7608
ois	-7609
oor	-7610
oty	-7611
ply	-7612
rey	-7613
sub	-7614
sun	-7615
sur	-7616
ulp	-7617
uto	-7618
uum	-7619
voc	-7620
▁$5	-7621
▁(“	-7622
▁2,	-7623
▁22	-7624
▁29	-7625
▁HF	-7626
▁IP	-7627
▁Ir	-7628
▁Ox	-7629
▁Sm	-7630
▁id	-7631
-199	-7632
ELHI	-7633
abwe	-7634
anka	-7635
asse	-7636
aund	-7637
aunt	-7638
bean	-7639
beit	-7640
berg	-7641
cher	-7642
cile	-7643
cked	-7644
conf	-7645
cure	-7646
eter	-7647
fold	-7648
gedy	-7649
ibri	-7650
icks	-7651
iped	-7652
isan	-7653
life	-7654
mare	-7655
mmet	-7656
mony	-7657
moud	-7658
oded	-7659
offs	-7660
plan	-7661
pric	-7662
rank	-7663
rill	-7664
rong	-7665
roph	-7666
rote	-7667
sett	-7668
ucky	-7669
▁$10	-7670
▁13%	-7671
▁60%	-7672
▁Act	-7673
▁Aff	-7674
▁Age	-7675
▁Ang	-7676
▁Bah	-7677
▁Bre	-7678
▁Cop	-7679
▁Cor	-7680
▁Cup	-7681
▁Day	-7682
▁Dod	-7683
▁EMU	-7684
▁Emp	-7685
▁Has	-7686
▁Lee	-7687
▁McC	-7688
▁NPT	-7689
▁Nav	-7690
▁Nep	-7691
▁Nik	-7692
▁Old	-7693
▁Rod	-7694
▁Shi	-7695
▁Six	-7696
▁Squ	-7697
▁Ste	-7698
▁Sur	-7699
▁Ter	-7700
▁Two	-7701
▁Web	-7702
▁ang	-7703
▁arm	-7704
▁asc	-7705
▁bea	-7706
▁boy	-7707
▁bra	-7708
▁cyn	-7709
▁fan	-7710
▁fat	-7711
▁flu	-7712
▁gun	-7713
▁ham	-7714
▁haz	-7715
▁hur	-7716
▁lux	-7717
▁mag	-7718
▁mir	-7719
▁nom	-7720
▁peg	-7721
▁ran	-7722
▁rid	-7723
▁rot	-7724
▁slo	-7725
▁tom	-7726
▁ult	-7727
▁wis	-7728
,000.	-7729
Assad	-7730
Semit	-7731
acked	-7732
aksin	-7733
andin	-7734
angan	-7735
anges	-7736
arget	-7737
arked	-7738
assed	-7739
backs	-7740
bling	-7741
emics	-7742
enter	-7743
exist	-7744
field	-7745
iants	-7746
idden	-7747
iform	-7748
inter	-7749
ister	-7750
ivals	-7751
licop	-7752
mates	-7753
ophob	-7754
oping	-7755
ordon	-7756
osion	-7757
ostic	-7758
otted	-7759
quiry	-7760
rison	-7761
roika	-7762
roots	-7763
sheet	-7764
speed	-7765
think	-7766
uracy	-7767
worth	-7768
▁$100	-7769
▁1960	-7770
▁2001	-7771
▁2020	-7772
▁Bhut	-7773
▁Does	-7774
▁Emer	-7775
▁Gold	-7776
▁High	-7777
▁ISIS	-7778
▁Jose	-7779
▁Mass	-7780
▁NGOs	-7781
▁Nazi	-7782
▁Pers	-7783
▁Peru	-7784
▁Shah	-7785
▁Shin	-7786
▁Sino	-7787
▁Thom	-7788
▁Vice	-7789
▁Zimb	-7790
▁Zion	-7791
▁bias	-7792
▁buff	-7793
▁cart	-7794
▁culp	-7795
▁curb	-7796
▁curt	-7797
▁damp	-7798
▁emot	-7799
▁ends	-7800
▁fant	-7801
▁fasc	-7802
▁flag	-7803
▁gaps	-7804
▁hide	-7805
▁lobb	-7806
▁mast	-7807
▁migr	-7808
▁mild	-7809
▁pact	-7810
▁pand	-7811
▁pump	-7812
▁puts	-7813
▁rain	-7814
▁seas	-7815
▁shot	-7816
▁soph	-7817
▁stif	-7818
▁stub	-7819
▁subm	-7820
▁toll	-7821
▁tsun	-7822
▁unan	-7823
▁unle	-7824
▁unth	-7825
▁vide	-7826
▁wait	-7827
▁warr	-7828
▁wise	-7829
00,000	-7830
Brexit	-7831
USSELS	-7832
active	-7833
addafi	-7834
arting	-7835
bornly	-7836
comers	-7837
contin	-7838
depend	-7839
ection	-7840
gments	-7841
guided	-7842
ibbean	-7843
ibrium	-7844
ieties	-7845
iguous	-7846
inejad	-7847
itudes	-7848
lywood	-7849
mostly	-7850
normal	-7851
ocrats	-7852
osable	-7853
points	-7854
taking	-7855
ussein	-7856
▁1,000	-7857
▁1991,	-7858
▁2003,	-7859
▁2016,	-7860
▁Assoc	-7861
▁Blair	-7862
▁Brown	-7863
▁Catal	-7864
▁DELHI	-7865
▁Delhi	-7866
▁Dream	-7867
▁Event	-7868
▁Guant	-7869
▁Ocean	-7870
▁PARIS	-7871
▁Panel	-7872
▁Sadat	-7873
▁Singh	-7874
▁Stand	-7875
▁	-7876
e	-7877
t	-7878
a	-7879
i	-7880
n	-7881
o	-7882
s	-7883
r	-7884
l	-7885
h	-7886
d	-7887
c	-7888
u	-7889
m	-7890
p	-7891
f	-7892
g	-7893
y	-7894
w	-7895
b	-7896
,	-7897
v	-7898
.	-7899
k	-7900
T	-7901
I	-7902
-	-7903
A	-7904
’	-7905
S	-7906
x	-7907
C	-7908
0	-7909
E	-7910
B	-7911
–	-7912
U	-7913
P	-7914
M	-7915
z	-7916
1	-7917
q	-7918
W	-7919
F	-7920
G	-7921
N	-7922
j	-7923
2	-7924
R	-7925
O	-7926
D	-7927
“	-7928
”	-7929
H	-7930
9	-7931
L	-7932
K	-7933
(	-7934
J	-7935
)	-7936
%	-7937
5	-7938
;	-7939
3	-7940
:	-7941
4	-7942
?	-7943
8	-7944
7	-7945
Y	-7946
6	-7947
V	-7948
$	-7949
'	-7950
Q	-7951
&	-7952
Z	-7953
X	-7954
/	-7955
"	-7956
!	-7957
€	-7958
á	-7959
é	-7960
ğ	-7961
#	-7962
[	-7963
]	-7964
ü	-7965
¥	-7966
·	-7967
ó	-7968
—	-7969
+	-7970
ö	-7971
à	-7972
í	-7973
£	-7974
ä	-7975
ç	-7976
°	-7977
è	-7978
ñ	-7979
‒	-7980
‘	-7981
\	-7982
­	-7983
É	-7984
Ö	-7985
•	-7986
@	-7987
ï	-7988
ô	-7989
õ	-7990
ú	-7991
ł	-7992
ń	-7993
Š	-7994
́	-7995
